{
  "version": "1.0",
  "truncation": null,
  "padding": null,
  "added_tokens": [
    {
      "id": 0,
      "content": "<pad>",
      "single_word": false,
      "lstrip": false,
      "rstrip": false,
      "normalized": false,
      "special": true
    },
    {
      "id": 1,
      "content": "<unk>",
      "single_word": false,
      "lstrip": false,
      "rstrip": false,
      "normalized": false,
      "special": true
    },
    {
      "id": 2,
      "content": "<s>",
      "single_word": false,
      "lstrip": false,
      "rstrip": false,
      "normalized": false,
      "special": true
    },
    {
      "id": 3,
      "content": "</s>",
      "single_word": false,
      "lstrip": false,
      "rstrip": false,
      "normalized": false,
      "special": true
    },
    {
      "id": 4,
      "content": "<mask>",
      "single_word": false,
      "lstrip": false,
      "rstrip": false,
      "normalized": false,
      "special": true
    },
    {
      "id": 5,
      "content": "<cls>",
      "single_word": false,
      "lstrip": false,
      "rstrip": false,
      "normalized": false,
      "special": true
    },
    {
      "id": 6,
      "content": "<sep>",
      "single_word": false,
      "lstrip": false,
      "rstrip": false,
      "normalized": false,
      "special": true
    },
    {
      "id": 7,
      "content": "<usr>",
      "single_word": false,
      "lstrip": false,
      "rstrip": false,
      "normalized": false,
      "special": true
    },
    {
      "id": 8,
      "content": "<sys>",
      "single_word": false,
      "lstrip": false,
      "rstrip": false,
      "normalized": false,
      "special": true
    },
    {
      "id": 9,
      "content": "<bot>",
      "single_word": false,
      "lstrip": false,
      "rstrip": false,
      "normalized": false,
      "special": true
    },
    {
      "id": 10,
      "content": "<th>",
      "single_word": false,
      "lstrip": false,
      "rstrip": false,
      "normalized": false,
      "special": true
    },
    {
      "id": 11,
      "content": "<en>",
      "single_word": false,
      "lstrip": false,
      "rstrip": false,
      "normalized": false,
      "special": true
    },
    {
      "id": 12,
      "content": "<num>",
      "single_word": false,
      "lstrip": false,
      "rstrip": false,
      "normalized": false,
      "special": true
    },
    {
      "id": 13,
      "content": "<url>",
      "single_word": false,
      "lstrip": false,
      "rstrip": false,
      "normalized": false,
      "special": true
    },
    {
      "id": 14,
      "content": "<email>",
      "single_word": false,
      "lstrip": false,
      "rstrip": false,
      "normalized": false,
      "special": true
    },
    {
      "id": 15,
      "content": "<human>",
      "single_word": false,
      "lstrip": false,
      "rstrip": false,
      "normalized": false,
      "special": true
    },
    {
      "id": 16,
      "content": "<assistant>",
      "single_word": false,
      "lstrip": false,
      "rstrip": false,
      "normalized": false,
      "special": true
    },
    {
      "id": 17,
      "content": "<system>",
      "single_word": false,
      "lstrip": false,
      "rstrip": false,
      "normalized": false,
      "special": true
    },
    {
      "id": 18,
      "content": "<tool>",
      "single_word": false,
      "lstrip": false,
      "rstrip": false,
      "normalized": false,
      "special": true
    },
    {
      "id": 19,
      "content": "<|im_start|>",
      "single_word": false,
      "lstrip": false,
      "rstrip": false,
      "normalized": false,
      "special": true
    },
    {
      "id": 20,
      "content": "<|im_end|>",
      "single_word": false,
      "lstrip": false,
      "rstrip": false,
      "normalized": false,
      "special": true
    },
    {
      "id": 21,
      "content": "<|endoftext|>",
      "single_word": false,
      "lstrip": false,
      "rstrip": false,
      "normalized": false,
      "special": true
    }
  ],
  "normalizer": {
    "type": "NFKC"
  },
  "pre_tokenizer": {
    "type": "Sequence",
    "pretokenizers": [
      {
        "type": "Whitespace"
      },
      {
        "type": "Punctuation",
        "behavior": "Isolated"
      }
    ]
  },
  "post_processor": {
    "type": "TemplateProcessing",
    "single": [
      {
        "SpecialToken": {
          "id": "<s>",
          "type_id": 0
        }
      },
      {
        "Sequence": {
          "id": "A",
          "type_id": 0
        }
      },
      {
        "SpecialToken": {
          "id": "</s>",
          "type_id": 0
        }
      }
    ],
    "pair": [
      {
        "SpecialToken": {
          "id": "<s>",
          "type_id": 0
        }
      },
      {
        "Sequence": {
          "id": "A",
          "type_id": 0
        }
      },
      {
        "SpecialToken": {
          "id": "</s>",
          "type_id": 0
        }
      },
      {
        "SpecialToken": {
          "id": "<s>",
          "type_id": 0
        }
      },
      {
        "Sequence": {
          "id": "B",
          "type_id": 0
        }
      },
      {
        "SpecialToken": {
          "id": "</s>",
          "type_id": 0
        }
      }
    ],
    "special_tokens": {
      "</s>": {
        "id": "</s>",
        "ids": [
          3
        ],
        "tokens": [
          "</s>"
        ]
      },
      "<s>": {
        "id": "<s>",
        "ids": [
          2
        ],
        "tokens": [
          "<s>"
        ]
      }
    }
  },
  "decoder": {
    "type": "Metaspace",
    "replacement": "▁",
    "prepend_scheme": "always",
    "split": true
  },
  "model": {
    "type": "Unigram",
    "unk_id": 1,
    "vocab": [
      [
        "<pad>",
        0.0
      ],
      [
        "<unk>",
        0.0
      ],
      [
        "<s>",
        0.0
      ],
      [
        "</s>",
        0.0
      ],
      [
        "<mask>",
        0.0
      ],
      [
        "<cls>",
        0.0
      ],
      [
        "<sep>",
        0.0
      ],
      [
        "<usr>",
        0.0
      ],
      [
        "<sys>",
        0.0
      ],
      [
        "<bot>",
        0.0
      ],
      [
        "<th>",
        0.0
      ],
      [
        "<en>",
        0.0
      ],
      [
        "<num>",
        0.0
      ],
      [
        "<url>",
        0.0
      ],
      [
        "<email>",
        0.0
      ],
      [
        "<human>",
        0.0
      ],
      [
        "<assistant>",
        0.0
      ],
      [
        "<system>",
        0.0
      ],
      [
        "<tool>",
        0.0
      ],
      [
        "<|im_start|>",
        0.0
      ],
      [
        "<|im_end|>",
        0.0
      ],
      [
        "<|endoftext|>",
        0.0
      ],
      [
        "การ",
        -3.705905643571107
      ],
      [
        "ที่",
        -3.78994998251191
      ],
      [
        "น",
        -3.9439943557707586
      ],
      [
        "และ",
        -3.9529124508914277
      ],
      [
        "ใน",
        -4.124378461328519
      ],
      [
        "ของ",
        -4.197239985432172
      ],
      [
        "เป็น",
        -4.322876015198252
      ],
      [
        "มี",
        -4.557260193998978
      ],
      [
        "ศาสตร์",
        -4.659219976145471
      ],
      [
        "ก",
        -4.669386651733107
      ],
      [
        "อ",
        -4.783290640081005
      ],
      [
        "ได้",
        -4.878239048714552
      ],
      [
        "ว่า",
        -4.906653962818706
      ],
      [
        "ค",
        -4.934992141059156
      ],
      [
        "ส",
        -4.937634463905677
      ],
      [
        "ด",
        -4.948695336555486
      ],
      [
        "ง",
        -4.976079980765448
      ],
      [
        "บ",
        -5.030966933540217
      ],
      [
        "อร์",
        -5.042054812194852
      ],
      [
        "์",
        -5.064115414972122
      ],
      [
        "ทาง",
        -5.090836255575922
      ],
      [
        "ความ",
        -5.14361901938036
      ],
      [
        "ม",
        -5.197270952360271
      ],
      [
        "เต",
        -5.198130907711031
      ],
      [
        "ดารา",
        -5.21910754882989
      ],
      [
        "จาก",
        -5.220224786575465
      ],
      [
        "คอมพิว",
        -5.25046717936553
      ],
      [
        "ๆ",
        -5.3205049018357125
      ],
      [
        "ใช้",
        -5.3629082287209355
      ],
      [
        "ดาว",
        -5.381298347337103
      ],
      [
        "ซึ่ง",
        -5.395913631846777
      ],
      [
        "ล",
        -5.396764630185999
      ],
      [
        "โดย",
        -5.4000498274816096
      ],
      [
        "มา",
        -5.407655276423417
      ],
      [
        "แบบ",
        -5.417473527956754
      ],
      [
        "เ",
        -5.440535255568827
      ],
      [
        "า",
        -5.45120300798294
      ],
      [
        "ถึง",
        -5.4621432865826165
      ],
      [
        "จะ",
        -5.475554815763279
      ],
      [
        "ต",
        -5.494317249294847
      ],
      [
        "เมือง",
        -5.50862915761734
      ],
      [
        "ย",
        -5.514393853528868
      ],
      [
        "ว",
        -5.515423651605836
      ],
      [
        "ร",
        -5.532508067455559
      ],
      [
        "ขึ้น",
        -5.566176502710738
      ],
      [
        "คณิต",
        -5.583231489426061
      ],
      [
        "มาก",
        -5.58596619907883
      ],
      [
        "กับ",
        -5.61320329876267
      ],
      [
        "ป",
        -5.674745202576922
      ],
      [
        "ท",
        -5.697483054119168
      ],
      [
        "จ",
        -5.700747697236991
      ],
      [
        "ไป",
        -5.703735502988835
      ],
      [
        "รัฐ",
        -5.710053684749385
      ],
      [
        "ทฤษฎี",
        -5.711325836837075
      ],
      [
        "การศึกษา",
        -5.712025171663905
      ],
      [
        "พ",
        -5.716425311288895
      ],
      [
        "หรือ",
        -5.751206662762369
      ],
      [
        "ไม่",
        -5.75262528781905
      ],
      [
        "วิทยา",
        -5.755658512339423
      ],
      [
        "ี้",
        -5.775496692931121
      ],
      [
        "แต่",
        -5.782293921059151
      ],
      [
        "ระบบ",
        -5.785321759067492
      ],
      [
        "อย่าง",
        -5.802159720641038
      ],
      [
        "ภูมิศาสตร์",
        -5.8084885343789665
      ],
      [
        "ต่าง",
        -5.8210677771741155
      ],
      [
        "ข้อมูล",
        -5.824819356134902
      ],
      [
        "ศ",
        -5.856209745724327
      ],
      [
        "สาม",
        -5.870957727022637
      ],
      [
        "ด้วย",
        -5.884163647829223
      ],
      [
        "ณ",
        -5.910184315687079
      ],
      [
        "อยู่",
        -5.912334633692329
      ],
      [
        "เพื่อ",
        -5.9259343821989034
      ],
      [
        "ั้น",
        -5.928142034513563
      ],
      [
        "พื้น",
        -5.9404834153716735
      ],
      [
        "เชิง",
        -5.948817688660274
      ],
      [
        "ธรรม",
        -5.960707477542018
      ],
      [
        "ารถ",
        -5.967249792849771
      ],
      [
        "งาน",
        -5.978799643010509
      ],
      [
        "ก็",
        -5.983750585418831
      ],
      [
        "กัน",
        -5.9873084252827855
      ],
      [
        "เช่น",
        -5.99223350946986
      ],
      [
        "สาขา",
        -6.003233776100706
      ],
      [
        "อง",
        -6.0202715630951715
      ],
      [
        "ให้",
        -6.028793205285745
      ],
      [
        "รับ",
        -6.047166101686745
      ],
      [
        "เกิด",
        -6.058280842088008
      ],
      [
        "ใ",
        -6.067582654705347
      ],
      [
        "รวม",
        -6.072246777451855
      ],
      [
        "นัก",
        -6.082520908640488
      ],
      [
        "ี",
        -6.092027464289946
      ],
      [
        "ห",
        -6.1004560440065445
      ],
      [
        "ออก",
        -6.106925644178727
      ],
      [
        "ฐาน",
        -6.107549183587226
      ],
      [
        "ตั้ง",
        -6.10844043811098
      ],
      [
        "รูป",
        -6.115804488715793
      ],
      [
        "ข้อ",
        -6.119029056638143
      ],
      [
        "ือ",
        -6.119914070634558
      ],
      [
        "จักร",
        -6.129714361772083
      ],
      [
        "ส่วน",
        -6.144275631286641
      ],
      [
        "ปี",
        -6.154979994739392
      ],
      [
        "มนุษย์",
        -6.1593915536162065
      ],
      [
        "หนึ่ง",
        -6.168206048930746
      ],
      [
        "ชาติ",
        -6.188691521489736
      ],
      [
        "โลก",
        -6.224695035160225
      ],
      [
        "ถูก",
        -6.228500367992079
      ],
      [
        "วิทยาศาสตร์",
        -6.234319125208926
      ],
      [
        "ตัว",
        -6.238872908697232
      ],
      [
        "่",
        -6.244880547518675
      ],
      [
        "ภาพ",
        -6.254700994782221
      ],
      [
        "คํา",
        -6.295870499364421
      ],
      [
        "ภูมิ",
        -6.298817198454215
      ],
      [
        "สังคม",
        -6.307224183102341
      ],
      [
        "ภาษา",
        -6.308498141965077
      ],
      [
        "สร้าง",
        -6.324614917176409
      ],
      [
        "น์",
        -6.341309285123386
      ],
      [
        "จํานวน",
        -6.342967978298208
      ],
      [
        "สารสนเทศ",
        -6.343417312814256
      ],
      [
        "ื่น",
        -6.363095374521571
      ],
      [
        "ํานว",
        -6.371382709371714
      ],
      [
        "เกี่ยว",
        -6.3789545842477295
      ],
      [
        "แรก",
        -6.381049684563283
      ],
      [
        "ผล",
        -6.39534571109553
      ],
      [
        "ระหว่าง",
        -6.39963738762501
      ],
      [
        "หมาย",
        -6.400222281040504
      ],
      [
        "ต่อ",
        -6.406375495396157
      ],
      [
        "เข้า",
        -6.406424863441906
      ],
      [
        "สุด",
        -6.4247199357751175
      ],
      [
        "กลุ่ม",
        -6.428158086373899
      ],
      [
        "หม่",
        -6.4304419138924995
      ],
      [
        "วิธี",
        -6.439303737547407
      ],
      [
        "เครื่อง",
        -6.439436298388119
      ],
      [
        "ะ",
        -6.4493017418674405
      ],
      [
        "ญ",
        -6.466070968725578
      ],
      [
        "เกี่ยวกั",
        -6.48216986164352
      ],
      [
        "ภ",
        -6.496707089146383
      ],
      [
        "ประเทศ",
        -6.501746346050019
      ],
      [
        "ใจ",
        -6.506503861027847
      ],
      [
        "เว็บ",
        -6.523596678439105
      ],
      [
        "สังเกต",
        -6.545654054354484
      ],
      [
        "ดวง",
        -6.549974371114402
      ],
      [
        "สาร",
        -6.5550325013631205
      ],
      [
        "ชื่อ",
        -6.5625610957027245
      ],
      [
        "ช",
        -6.566535436121477
      ],
      [
        "เคราะห์",
        -6.568056660504304
      ],
      [
        "ฤกษ",
        -6.568736556485319
      ],
      [
        "ภาค",
        -6.575033289630237
      ],
      [
        "แ",
        -6.57724462956309
      ],
      [
        "คิด",
        -6.582940406208111
      ],
      [
        "การณ์",
        -6.5878911260875554
      ],
      [
        "ยัง",
        -6.591064422233757
      ],
      [
        "ช่วง",
        -6.591881057337419
      ],
      [
        "ทําให้",
        -6.593056877275057
      ],
      [
        "สํา",
        -6.629626827726971
      ],
      [
        "มอง",
        -6.63253884070485
      ],
      [
        "หลาย",
        -6.642965074943806
      ],
      [
        "ึง",
        -6.658362409106211
      ],
      [
        "วัตถุ",
        -6.66476600352202
      ],
      [
        "ทิ",
        -6.66897762207695
      ],
      [
        "สําคัญ",
        -6.671839798516027
      ],
      [
        "โปรแกรม",
        -6.6904060186025855
      ],
      [
        "วิเคราะห์",
        -6.69655912318067
      ],
      [
        "พัน",
        -6.696827799951356
      ],
      [
        "้",
        -6.701209317516858
      ],
      [
        "ศึกษา",
        -6.715597678374776
      ],
      [
        "ปัจจ",
        -6.71655613524692
      ],
      [
        "สิ่ง",
        -6.717626544304816
      ],
      [
        "สูง",
        -6.719894446814811
      ],
      [
        "ไฟ",
        -6.720237489660304
      ],
      [
        "เรียก",
        -6.7204062884489435
      ],
      [
        "สม",
        -6.73301858459698
      ],
      [
        "ทางการ",
        -6.733118622752953
      ],
      [
        "กระท",
        -6.734107599167579
      ],
      [
        "การค",
        -6.738950606735709
      ],
      [
        "แนว",
        -6.740086043274567
      ],
      [
        "ตาม",
        -6.741969189140992
      ],
      [
        "ิ",
        -6.743404115944045
      ],
      [
        "วิศวกรรม",
        -6.743752291493021
      ],
      [
        "ุบั",
        -6.745368711843247
      ],
      [
        "โ",
        -6.749902849889491
      ],
      [
        "บาง",
        -6.749975343955888
      ],
      [
        "ให",
        -6.757991856119368
      ],
      [
        "ต์",
        -6.759478637398905
      ],
      [
        "ด้าน",
        -6.7729259506155435
      ],
      [
        "ไทย",
        -6.782973567356485
      ],
      [
        "ยุค",
        -6.793931815425537
      ],
      [
        "เริ่ม",
        -6.800401571587244
      ],
      [
        "แก่",
        -6.8009709970591565
      ],
      [
        "อาจ",
        -6.803525130979835
      ],
      [
        "ทํา",
        -6.810122885934851
      ],
      [
        "ผู้",
        -6.8134383589901155
      ],
      [
        "ซ",
        -6.815291935409985
      ],
      [
        "หลัก",
        -6.828214395791793
      ],
      [
        "ซอฟต์แวร์",
        -6.829509781477649
      ],
      [
        "สมัย",
        -6.829781441489655
      ],
      [
        "กลาง",
        -6.839635378029659
      ],
      [
        "ลักษณะ",
        -6.840173738271357
      ],
      [
        "ถ",
        -6.859261027659281
      ],
      [
        "เห็น",
        -6.8601314521555965
      ],
      [
        "ต้อง",
        -6.863417864749081
      ],
      [
        "ประกอบ",
        -6.867618007062969
      ],
      [
        "เมื่อ",
        -6.884874544446303
      ],
      [
        "จัด",
        -6.8855441007116855
      ],
      [
        "แผน",
        -6.902517788484723
      ],
      [
        "ผ่า",
        -6.909379815672451
      ],
      [
        "ฟ้า",
        -6.924041921951153
      ],
      [
        "จน",
        -6.924485517935909
      ],
      [
        "ต้น",
        -6.930529680353722
      ],
      [
        "การพัฒนา",
        -6.949976231796721
      ],
      [
        "เม",
        -6.954901054439337
      ],
      [
        "เรื่อง",
        -6.958301636570709
      ],
      [
        "เอก",
        -6.9591277565584395
      ],
      [
        "เวลา",
        -6.959561599167449
      ],
      [
        "บท",
        -6.970278571761
      ],
      [
        "เอ",
        -6.9752930103189765
      ],
      [
        "ู้",
        -6.976072714796349
      ],
      [
        "รู้",
        -6.982636578644188
      ],
      [
        "บริ",
        -6.990135505251359
      ],
      [
        "แล้ว",
        -6.9913593184131395
      ],
      [
        "โครงสร้าง",
        -6.99138628413718
      ],
      [
        "สัมพันธ์",
        -6.994995971720664
      ],
      [
        "กลาย",
        -6.9975880517518005
      ],
      [
        "รา",
        -7.003676833837956
      ],
      [
        "ศูนย์",
        -7.014788313519133
      ],
      [
        "นิยม",
        -7.026019600098477
      ],
      [
        "แห่ง",
        -7.027162206059893
      ],
      [
        "จํา",
        -7.02826944183697
      ],
      [
        "ราช",
        -7.028752092977054
      ],
      [
        "นี",
        -7.031825975914833
      ],
      [
        "โต",
        -7.036832348799298
      ],
      [
        "ล์",
        -7.044441658485957
      ],
      [
        "ฝ",
        -7.056989704376036
      ],
      [
        "สอง",
        -7.058350067680415
      ],
      [
        "ทั้ง",
        -7.059686838517241
      ],
      [
        "เยอรม",
        -7.063889548125607
      ],
      [
        "รังสี",
        -7.064148143710227
      ],
      [
        "ขนาด",
        -7.070135744917739
      ],
      [
        "ู",
        -7.075070674120521
      ],
      [
        "ได้รับ",
        -7.079956295532563
      ],
      [
        "กาศ",
        -7.081012426118015
      ],
      [
        "เขีย",
        -7.093922890809619
      ],
      [
        "ก่อน",
        -7.100455521607077
      ],
      [
        "ัน",
        -7.114833751508549
      ],
      [
        "แสดง",
        -7.1223896383584835
      ],
      [
        "มัก",
        -7.123965437004394
      ],
      [
        "แตก",
        -7.125503223621031
      ],
      [
        "อัน",
        -7.128582708855268
      ],
      [
        "ย์",
        -7.135897449917
      ],
      [
        "วัฒน",
        -7.142089905963865
      ],
      [
        "ําเนิ",
        -7.142518128275082
      ],
      [
        "วิชา",
        -7.144352512816902
      ],
      [
        "ห้อง",
        -7.146977181395661
      ],
      [
        "ไซ",
        -7.147425797166056
      ],
      [
        "ครั้ง",
        -7.148408699747356
      ],
      [
        "ไ",
        -7.148474817407097
      ],
      [
        "จุด",
        -7.150671327232507
      ],
      [
        "ฟ",
        -7.154805455124069
      ],
      [
        "ยุ",
        -7.162352836132364
      ],
      [
        "สิ่งแวดล้อม",
        -7.184138711900509
      ],
      [
        "ประวัติ",
        -7.184237205229217
      ],
      [
        "ท้อง",
        -7.189313626591623
      ],
      [
        "จริ",
        -7.209317536399987
      ],
      [
        "รี",
        -7.209465008746831
      ],
      [
        "จักรวาล",
        -7.2275240511521
      ],
      [
        "ดําเนิน",
        -7.227725853698446
      ],
      [
        "อาทิ",
        -7.22919970468984
      ],
      [
        "เปลี่ยน",
        -7.230700688434588
      ],
      [
        "วง",
        -7.231374374095045
      ],
      [
        "ความรู้",
        -7.2347276490642205
      ],
      [
        "กระบวนการ",
        -7.237969502324414
      ],
      [
        "เทคโนโลยี",
        -7.240220637206937
      ],
      [
        "ค้น",
        -7.247948818693573
      ],
      [
        "ุ",
        -7.249442180143828
      ],
      [
        "ดู",
        -7.2517161106079655
      ],
      [
        "ส์",
        -7.253119159770215
      ],
      [
        "โร",
        -7.263336381721107
      ],
      [
        "หลัง",
        -7.267401508738802
      ],
      [
        "หน้า",
        -7.272665224512897
      ],
      [
        "โบราณ",
        -7.272949380626663
      ],
      [
        "กําหนด",
        -7.272953082482272
      ],
      [
        "ศตวรรษ",
        -7.272960265544118
      ],
      [
        "แบ่ง",
        -7.273498708714818
      ],
      [
        "ปรากฏการณ์",
        -7.273520534126824
      ],
      [
        "เลข",
        -7.277579540065762
      ],
      [
        "่อย",
        -7.295616836149215
      ],
      [
        "ริ",
        -7.306656235187443
      ],
      [
        "ปรัชญา",
        -7.320568361388082
      ],
      [
        "นํา",
        -7.322156658178464
      ],
      [
        "ละ",
        -7.322918467938496
      ],
      [
        "ประสิทธิ",
        -7.326780373069867
      ],
      [
        "ชั้น",
        -7.328036068203531
      ],
      [
        "มัน",
        -7.32887191589965
      ],
      [
        "เขา",
        -7.329395420520702
      ],
      [
        "ําห",
        -7.343199782393046
      ],
      [
        "ข",
        -7.34928217697974
      ],
      [
        "ปฏิ",
        -7.34988547632795
      ],
      [
        "้ง",
        -7.35257286666962
      ],
      [
        "รอบ",
        -7.356451991517249
      ],
      [
        "หา",
        -7.3592524967954205
      ],
      [
        "ุก",
        -7.361441968950457
      ],
      [
        "ปัญหา",
        -7.370381954027665
      ],
      [
        "แหล่ง",
        -7.370568779945415
      ],
      [
        "เครือข่าย",
        -7.37057605896014
      ],
      [
        "กล่าว",
        -7.370602850187965
      ],
      [
        "เนื่อง",
        -7.370697332361189
      ],
      [
        "ช่วย",
        -7.370905870782254
      ],
      [
        "เน้น",
        -7.371028892535197
      ],
      [
        "เหล่าน",
        -7.372349332076807
      ],
      [
        "สาขาวิชา",
        -7.373091157779154
      ],
      [
        "เล่น",
        -7.3738751566205485
      ],
      [
        "เปิด",
        -7.375661288788052
      ],
      [
        "เล็ก",
        -7.375862582504913
      ],
      [
        "การเปลี่ยนแปลง",
        -7.376417482565726
      ],
      [
        "มุม",
        -7.37780207761859
      ],
      [
        "ก่อ",
        -7.377845085520482
      ],
      [
        "พัฒนา",
        -7.378642861290648
      ],
      [
        "น้ํา",
        -7.38020270981993
      ],
      [
        "อีก",
        -7.38513743346661
      ],
      [
        "ชิ",
        -7.385831479320322
      ],
      [
        "ประเ",
        -7.396153938421776
      ],
      [
        "สมา",
        -7.401189867724039
      ],
      [
        "ร์",
        -7.4048875654307285
      ],
      [
        "คล",
        -7.407705530711402
      ],
      [
        "มือ",
        -7.409270054099104
      ],
      [
        "พิ",
        -7.41023588632283
      ],
      [
        "เฉพาะ",
        -7.4196045462909375
      ],
      [
        "รุง",
        -7.419865919946874
      ],
      [
        "มวล",
        -7.422350000656716
      ],
      [
        "สมัคร",
        -7.423209971467761
      ],
      [
        "หมู่",
        -7.42321406530483
      ],
      [
        "ระดับ",
        -7.423413816558417
      ],
      [
        "เดิม",
        -7.423481761984517
      ],
      [
        "ไอ",
        -7.425803706528328
      ],
      [
        "โทรท",
        -7.427389527558267
      ],
      [
        "พย์",
        -7.429372552744951
      ],
      [
        "สื่อ",
        -7.4295990672426075
      ],
      [
        "แบ",
        -7.432300718336651
      ],
      [
        "นิค",
        -7.4326497388693555
      ],
      [
        "ิป",
        -7.434594548607991
      ],
      [
        "จัดการ",
        -7.438124514824198
      ],
      [
        "คื",
        -7.454023683275101
      ],
      [
        "การใช้",
        -7.454503015884331
      ],
      [
        "การทํา",
        -7.457842050907346
      ],
      [
        "พันธุ์",
        -7.477024033012892
      ],
      [
        "สาธารณ",
        -7.478755584819807
      ],
      [
        "จักรวรรดิ",
        -7.478755736689319
      ],
      [
        "อํานาจ",
        -7.478766646206399
      ],
      [
        "กว้าง",
        -7.478822543916417
      ],
      [
        "จํากัด",
        -7.478901741220186
      ],
      [
        "ไร้",
        -7.479314079748784
      ],
      [
        "เพิ่ม",
        -7.479354673255991
      ],
      [
        "าชิ",
        -7.480498965026156
      ],
      [
        "อ้าง",
        -7.485415292956967
      ],
      [
        "บอร์",
        -7.4983258065997695
      ],
      [
        "วิว",
        -7.499251655434625
      ],
      [
        "เล",
        -7.506068718483309
      ],
      [
        "ชนิ",
        -7.512053242654529
      ],
      [
        "กล",
        -7.5252334796640445
      ],
      [
        "โค",
        -7.52808408480667
      ],
      [
        "เท่า",
        -7.5292675228679675
      ],
      [
        "เว",
        -7.530123144695144
      ],
      [
        "เพียง",
        -7.537593504596221
      ],
      [
        "หมวด",
        -7.5376244253304066
      ],
      [
        "ระยะ",
        -7.537632417254974
      ],
      [
        "หน่วย",
        -7.537715010071626
      ],
      [
        "ประชากร",
        -7.537803719769852
      ],
      [
        "ตลอด",
        -7.537882017412215
      ],
      [
        "เศรษฐกิจ",
        -7.538063159279851
      ],
      [
        "คุณ",
        -7.538088587606083
      ],
      [
        "สู่",
        -7.541484872555051
      ],
      [
        "เทค",
        -7.542315532830892
      ],
      [
        "ัด",
        -7.545883010396542
      ],
      [
        "ล้อง",
        -7.552932506115178
      ],
      [
        "เด",
        -7.561689248928419
      ],
      [
        "ยภาพ",
        -7.56495794724318
      ],
      [
        "่าง",
        -7.566701965191423
      ],
      [
        "วัน",
        -7.567440507962393
      ],
      [
        "ลง",
        -7.574744818655629
      ],
      [
        "ไว",
        -7.575152164289841
      ],
      [
        "ชา",
        -7.5770698797850216
      ],
      [
        "หน่",
        -7.582375430256843
      ],
      [
        "องค์",
        -7.58870545619125
      ],
      [
        "สิทธิ",
        -7.593683082969939
      ],
      [
        "ติ",
        -7.5941875035656246
      ],
      [
        "พี",
        -7.59626229751175
      ],
      [
        "อย",
        -7.596571470569322
      ],
      [
        "ซี",
        -7.598187640963559
      ],
      [
        "มุ่ง",
        -7.600164006697586
      ],
      [
        "เหตุ",
        -7.600173770720005
      ],
      [
        "ผิว",
        -7.600402328034027
      ],
      [
        "ปฏิบัติ",
        -7.602307691876879
      ],
      [
        "นําไป",
        -7.603032659504686
      ],
      [
        "าร์",
        -7.606078487465602
      ],
      [
        "หลังจาก",
        -7.608719992576834
      ],
      [
        "ปริ",
        -7.611810567807323
      ],
      [
        "เรข",
        -7.617548691529906
      ],
      [
        "เร",
        -7.620686196267895
      ],
      [
        "ค้า",
        -7.626052431022087
      ],
      [
        "บาย",
        -7.629155999043016
      ],
      [
        "กรรม",
        -7.630459634504179
      ],
      [
        "เชื่อ",
        -7.63255244958519
      ],
      [
        "อธิ",
        -7.645060699974068
      ],
      [
        "าม",
        -7.660491718094561
      ],
      [
        "พลังงาน",
        -7.6668286057119595
      ],
      [
        "รัฐบาล",
        -7.666839207837413
      ],
      [
        "อย่างไร",
        -7.6671799468068365
      ],
      [
        "เป้า",
        -7.667244747508816
      ],
      [
        "ธรณี",
        -7.668453771372706
      ],
      [
        "ให้บริการ",
        -7.668810707655359
      ],
      [
        "คลื่น",
        -7.669019532953181
      ],
      [
        "กระจ",
        -7.67086714366171
      ],
      [
        "การวิจัย",
        -7.673722156281349
      ],
      [
        "ย่า",
        -7.696952814789052
      ],
      [
        "บริการ",
        -7.702116663633985
      ],
      [
        "เซ",
        -7.710050179600001
      ],
      [
        "แย",
        -7.713523382134324
      ],
      [
        "ชน",
        -7.718071893733961
      ],
      [
        "สัญ",
        -7.720104850063513
      ],
      [
        "ติด",
        -7.722599524165881
      ],
      [
        "งค์",
        -7.730021388590918
      ],
      [
        "ประ",
        -7.730436430184325
      ],
      [
        "ฤษ",
        -7.730455868769884
      ],
      [
        "ั่ง",
        -7.730588648326247
      ],
      [
        "แก๊",
        -7.732407419734627
      ],
      [
        "พลา",
        -7.7327905238969326
      ],
      [
        "กรี",
        -7.733998491744942
      ],
      [
        "ร่วมกั",
        -7.734234020601674
      ],
      [
        "ทั่วไป",
        -7.734600579491359
      ],
      [
        "สนอ",
        -7.736328628990478
      ],
      [
        "โน้ม",
        -7.738252393795284
      ],
      [
        "ตรรก",
        -7.738338323792832
      ],
      [
        "เก็บ",
        -7.739344905857082
      ],
      [
        "ัฒนาการ",
        -7.739450595835898
      ],
      [
        "อุป",
        -7.741012770755177
      ],
      [
        "สู",
        -7.741226964823293
      ],
      [
        "ุ่น",
        -7.742103159121496
      ],
      [
        "น้อย",
        -7.742311453322719
      ],
      [
        "กฎหมาย",
        -7.742503300606854
      ],
      [
        "ยิ่ง",
        -7.743011398900608
      ],
      [
        "นับ",
        -7.745595633596141
      ],
      [
        "ตอบ",
        -7.747980156877801
      ],
      [
        "ตัวอย่าง",
        -7.748880690523254
      ],
      [
        "ส่ง",
        -7.753346588624598
      ],
      [
        "ก่อตั",
        -7.75574652485362
      ],
      [
        "นาม",
        -7.76258743411063
      ],
      [
        "ัติ",
        -7.768144034131501
      ],
      [
        "สุ",
        -7.768294619357814
      ],
      [
        "ตรี",
        -7.780569563902986
      ],
      [
        "เลีย",
        -7.786921199240199
      ],
      [
        "ําแ",
        -7.787770308088632
      ],
      [
        "แปล",
        -7.8005108259907985
      ],
      [
        "วิ",
        -7.802988227204865
      ],
      [
        "ลักษณ",
        -7.811449993940178
      ],
      [
        "ล็ก",
        -7.811992695931757
      ],
      [
        "เหนือ",
        -7.814773285592535
      ],
      [
        "อัลกอริทึม",
        -7.8150973288252885
      ],
      [
        "ซับซ้อน",
        -7.815097338473015
      ],
      [
        "กีฬา",
        -7.815121281702975
      ],
      [
        "ข่าว",
        -7.815363376598848
      ],
      [
        "เกษตร",
        -7.8154457032760725
      ],
      [
        "ระบุ",
        -7.815721462821646
      ],
      [
        "องค์กร",
        -7.815809158199508
      ],
      [
        "าย",
        -7.815826536710143
      ],
      [
        "ครอบค",
        -7.81640650495401
      ],
      [
        "เสีย",
        -7.817035092655983
      ],
      [
        "ประยุกต์ใช้",
        -7.81885588915876
      ],
      [
        "พระราช",
        -7.8195603545403065
      ],
      [
        "เค",
        -7.8228187053916916
      ],
      [
        "ไกล",
        -7.828244681700343
      ],
      [
        "บุค",
        -7.830441778075519
      ],
      [
        "นาย",
        -7.834239145472912
      ],
      [
        "นัย",
        -7.839890968160306
      ],
      [
        "บน",
        -7.8410203523386075
      ],
      [
        "ภายใน",
        -7.841880551786414
      ],
      [
        "มิ",
        -7.843655322802297
      ],
      [
        "แล",
        -7.844461339645419
      ],
      [
        "นอก",
        -7.847344883392012
      ],
      [
        "าศั",
        -7.847763148367555
      ],
      [
        "ต้",
        -7.848790354849326
      ],
      [
        "ฮ",
        -7.851635429015299
      ],
      [
        "เปอร์",
        -7.857757755077458
      ],
      [
        "าร",
        -7.865434952723994
      ],
      [
        "ทั",
        -7.874765504518219
      ],
      [
        "เดียวกั",
        -7.878114755701324
      ],
      [
        "กระบวน",
        -7.878260057084503
      ],
      [
        "กาล",
        -7.879477139938779
      ],
      [
        "ลิ",
        -7.87995381925413
      ],
      [
        "ประชา",
        -7.896778881380511
      ],
      [
        "ฆ",
        -7.89843066215872
      ],
      [
        "มหาวิทยาลัย",
        -7.898430667496107
      ],
      [
        "ฟิสิกส์",
        -7.898431782583044
      ],
      [
        "สถิติ",
        -7.898432707056664
      ],
      [
        "ดิจิทัล",
        -7.898449718584761
      ],
      [
        "ริยะ",
        -7.89867243721918
      ],
      [
        "แกนกลาง",
        -7.89874481012495
      ],
      [
        "พล",
        -7.899440202725918
      ],
      [
        "อายุ",
        -7.899521195627557
      ],
      [
        "เบ",
        -7.902890950992427
      ],
      [
        "ลุม",
        -7.9032895432082935
      ],
      [
        "แสง",
        -7.90338004434021
      ],
      [
        "ในขณะ",
        -7.903966405260913
      ],
      [
        "โดยเฉพาะ",
        -7.904787027021573
      ],
      [
        "การประมวลผล",
        -7.907386912943832
      ],
      [
        "ถือ",
        -7.907762711923139
      ],
      [
        "ผู้ใช้",
        -7.909513406514865
      ],
      [
        "ํา",
        -7.909661323844228
      ],
      [
        "ทั้งห",
        -7.911387862969134
      ],
      [
        "มาณ",
        -7.92412889297143
      ],
      [
        "การปฏิ",
        -7.932961204873019
      ],
      [
        "กิจ",
        -7.948058001849131
      ],
      [
        "ราก",
        -7.9522205590169825
      ],
      [
        "้นห",
        -7.956893287064485
      ],
      [
        "แผ่",
        -7.965457904759637
      ],
      [
        "รณ์",
        -7.970773009758615
      ],
      [
        "การปก",
        -7.978969746852849
      ],
      [
        "หลากหลาย",
        -7.984343308946086
      ],
      [
        "ประยุกต์",
        -7.984884622244129
      ],
      [
        "ลับ",
        -7.986311558292436
      ],
      [
        "ว่าง",
        -7.988952685716375
      ],
      [
        "ประดิษฐ์",
        -7.989293742347589
      ],
      [
        "เคลื่อน",
        -7.989371456471998
      ],
      [
        "ประโยชน์",
        -7.989453770853974
      ],
      [
        "คาดการณ์",
        -7.989466988089263
      ],
      [
        "วรรษ",
        -7.989468388516551
      ],
      [
        "ถ่วง",
        -7.9897098307503045
      ],
      [
        "ประมาณ",
        -7.989874021885616
      ],
      [
        "เส้น",
        -7.9898829065051595
      ],
      [
        "วงศ์",
        -7.989959788615992
      ],
      [
        "กระจาย",
        -7.990313217730363
      ],
      [
        "ย่อ",
        -7.990681255513465
      ],
      [
        "เติล",
        -7.990869307053755
      ],
      [
        "กรณี",
        -7.991185569100837
      ],
      [
        "ปิด",
        -7.991283824373861
      ],
      [
        "เงิน",
        -7.99296753561219
      ],
      [
        "ประส",
        -7.993961533569918
      ],
      [
        "ราย",
        -7.9941253174621165
      ],
      [
        "โดยทั่วไป",
        -7.994839054564029
      ],
      [
        "บัติ",
        -7.995031103296015
      ],
      [
        "เขต",
        -7.995114175889544
      ],
      [
        "แรง",
        -7.9983592458503
      ],
      [
        "วัติ",
        -8.000561720620029
      ],
      [
        "รศ",
        -8.002471154413135
      ],
      [
        "เพล",
        -8.007365178044475
      ],
      [
        "ดี",
        -8.008116920849398
      ],
      [
        "ับ",
        -8.010260207300096
      ],
      [
        "มหา",
        -8.011985422578602
      ],
      [
        "ฮาร์",
        -8.014022293795897
      ],
      [
        "สิน",
        -8.023897543125512
      ],
      [
        "นิ",
        -8.025214938011723
      ],
      [
        "ด์",
        -8.037154095382542
      ],
      [
        "เป็นการ",
        -8.04109122962468
      ],
      [
        "สภาพ",
        -8.04458783381618
      ],
      [
        "ัส",
        -8.045028611110709
      ],
      [
        "ดิน",
        -8.051387470999956
      ],
      [
        "ทุก",
        -8.053226101129074
      ],
      [
        "ใด",
        -8.054791596469244
      ],
      [
        "จําเป็น",
        -8.057301258731805
      ],
      [
        "ที",
        -8.06294663701715
      ],
      [
        "ภายใ",
        -8.068637142735918
      ],
      [
        "ชีว",
        -8.07182273554014
      ],
      [
        "แม่",
        -8.07296736128496
      ],
      [
        "ั้ง",
        -8.080607249837271
      ],
      [
        "โด",
        -8.08147678799973
      ],
      [
        "พอ",
        -8.083211694092164
      ],
      [
        "แม้",
        -8.08624299392521
      ],
      [
        "พระ",
        -8.087877870750388
      ],
      [
        "ปรากฏ",
        -8.08805187458223
      ],
      [
        "ธ",
        -8.088936909648204
      ],
      [
        "สถาบัน",
        -8.08934194683123
      ],
      [
        "แพร่",
        -8.089366565472739
      ],
      [
        "จันทร",
        -8.089377811660041
      ],
      [
        "ปัญญาประดิษฐ์",
        -8.08939060544332
      ],
      [
        "แวร์",
        -8.089620342107622
      ],
      [
        "บรรยา",
        -8.090366949790765
      ],
      [
        "ผิด",
        -8.091046642585482
      ],
      [
        "รหัส",
        -8.091057901343373
      ],
      [
        "แขน",
        -8.09445559676461
      ],
      [
        "ริกา",
        -8.095212878898039
      ],
      [
        "สลาย",
        -8.098514632476663
      ],
      [
        "เคมี",
        -8.100089293820348
      ],
      [
        "เผ",
        -8.103232766046782
      ],
      [
        "คอม",
        -8.10445247121425
      ],
      [
        "รอง",
        -8.109933470803497
      ],
      [
        "โล",
        -8.111259604732707
      ],
      [
        "แทน",
        -8.113275580652498
      ],
      [
        "ิง",
        -8.114819490562237
      ],
      [
        "้า",
        -8.122135402252333
      ],
      [
        "เป็นต้น",
        -8.125503666903796
      ],
      [
        "หาก",
        -8.132238263473809
      ],
      [
        "่าย",
        -8.132282456897698
      ],
      [
        "แค",
        -8.14243160469657
      ],
      [
        "ิกส์",
        -8.152657250203262
      ],
      [
        "ทศ",
        -8.158920713859088
      ],
      [
        "ดา",
        -8.16125552085513
      ],
      [
        "างวั",
        -8.16360498885062
      ],
      [
        "เส",
        -8.165043969782648
      ],
      [
        "่าน",
        -8.170288304390638
      ],
      [
        "อา",
        -8.17042344765611
      ],
      [
        "ยาม",
        -8.172018230696526
      ],
      [
        "ิก",
        -8.17543084399232
      ],
      [
        "แอ",
        -8.178189609864294
      ],
      [
        "รักษา",
        -8.17822818955976
      ],
      [
        "โน",
        -8.179646749704471
      ],
      [
        "ผลกระทบ",
        -8.180205801157198
      ],
      [
        "จี",
        -8.19277322167996
      ],
      [
        "ระ",
        -8.193246081078094
      ],
      [
        "ภาย",
        -8.193924799809873
      ],
      [
        "กา",
        -8.19468446435357
      ],
      [
        "ค่า",
        -8.195224226897004
      ],
      [
        "รวจ",
        -8.197358977039698
      ],
      [
        "ถา",
        -8.197771598473526
      ],
      [
        "่า",
        -8.19965542239665
      ],
      [
        "พิจารณา",
        -8.200441981512743
      ],
      [
        "สนับสนุน",
        -8.200450864368966
      ],
      [
        "ลําดับ",
        -8.200453985845005
      ],
      [
        "ระเบียบ",
        -8.200455794691768
      ],
      [
        "ขั้นตอน",
        -8.200528261709035
      ],
      [
        "เหลือ",
        -8.200551658700478
      ],
      [
        "ผ",
        -8.2008814747095
      ],
      [
        "เป็นที่",
        -8.20225677665633
      ],
      [
        "อากาศ",
        -8.203184274056099
      ],
      [
        "เลือก",
        -8.20499499329335
      ],
      [
        "ร่วม",
        -8.206722865152406
      ],
      [
        "คริสต์",
        -8.206775938258993
      ],
      [
        "ทรัพยากร",
        -8.20688227812029
      ],
      [
        "หัว",
        -8.20846106698459
      ],
      [
        "พวก",
        -8.209926398133108
      ],
      [
        "ทรง",
        -8.210489323363992
      ],
      [
        "ซู",
        -8.211066758172223
      ],
      [
        "นา",
        -8.212926990969626
      ],
      [
        "สอบ",
        -8.213478916846311
      ],
      [
        "นอกจากน",
        -8.21384832954479
      ],
      [
        "ยาว",
        -8.21486574314562
      ],
      [
        "โอ",
        -8.215273786854787
      ],
      [
        "ข้าม",
        -8.215327980853733
      ],
      [
        "มื",
        -8.21610949748553
      ],
      [
        "ขัด",
        -8.219037858867793
      ],
      [
        "แนวทาง",
        -8.22091765832699
      ],
      [
        "มีความ",
        -8.225885831332539
      ],
      [
        "เซีย",
        -8.225990055194085
      ],
      [
        "อิ",
        -8.2297273588787
      ],
      [
        "ช้าง",
        -8.23278604169676
      ],
      [
        "อว",
        -8.23305679408627
      ],
      [
        "วิทย",
        -8.233138785625295
      ],
      [
        "สัง",
        -8.238658613363516
      ],
      [
        "ูญ",
        -8.247937631525488
      ],
      [
        "ตัวเ",
        -8.250133901331342
      ],
      [
        "รัส",
        -8.253955631966413
      ],
      [
        "คร",
        -8.259460424598512
      ],
      [
        "เฟ",
        -8.259644779644475
      ],
      [
        "อัง",
        -8.273215819139043
      ],
      [
        "ทรา",
        -8.274649931905728
      ],
      [
        "เก",
        -8.285359598107242
      ],
      [
        "เป็นหนึ่ง",
        -8.289774148208082
      ],
      [
        "าน",
        -8.29551976862514
      ],
      [
        "สา",
        -8.299140425314215
      ],
      [
        "การค้า",
        -8.299399734123345
      ],
      [
        "าร์ด",
        -8.301643080550408
      ],
      [
        "ุม",
        -8.302088201610857
      ],
      [
        "มาย",
        -8.3033323539173
      ],
      [
        "ห้าง",
        -8.310513256384182
      ],
      [
        "สี่",
        -8.311846497732025
      ],
      [
        "เทีย",
        -8.311870221901405
      ],
      [
        "ั",
        -8.312027670004204
      ],
      [
        "ชีวิต",
        -8.313218980538888
      ],
      [
        "ทุน",
        -8.31678346864665
      ],
      [
        "ภูมิศาสตร์กา",
        -8.319045221931827
      ],
      [
        "คม",
        -8.31991080751268
      ],
      [
        "ัง",
        -8.325140877052181
      ],
      [
        "สถาปัตยกรรม",
        -8.325450864191597
      ],
      [
        "ประเด็น",
        -8.325453781997062
      ],
      [
        "ธาตุ",
        -8.325454209675286
      ],
      [
        "การเข้ารหัส",
        -8.325484713283315
      ],
      [
        "มีส่วนร่วม",
        -8.325516448983903
      ],
      [
        "คล้าย",
        -8.325606056182057
      ],
      [
        "ตรวจสอบ",
        -8.325944692779522
      ],
      [
        "ขยาย",
        -8.326257629485168
      ],
      [
        "ฝ่าย",
        -8.326406533431285
      ],
      [
        "สหภาพ",
        -8.326751219543334
      ],
      [
        "ยืน",
        -8.327216466388359
      ],
      [
        "เร็",
        -8.32818266259235
      ],
      [
        "ความหนาแน่น",
        -8.329118913714725
      ],
      [
        "คุณภาพ",
        -8.329654668912848
      ],
      [
        "หลุม",
        -8.33044342678183
      ],
      [
        "นํามา",
        -8.332616001438563
      ],
      [
        "ยอม",
        -8.336804768330397
      ],
      [
        "สถานที่",
        -8.33981232365233
      ],
      [
        "แยก",
        -8.3440567593492
      ],
      [
        "ักษ์",
        -8.351421353783584
      ],
      [
        "ซิ",
        -8.356312542618468
      ],
      [
        "อนไ",
        -8.366558664555582
      ],
      [
        "ตรง",
        -8.367278173557409
      ],
      [
        "พร้อมกั",
        -8.368940571152525
      ],
      [
        "แฟ",
        -8.369792901203445
      ],
      [
        "สรรค์",
        -8.369951374172176
      ],
      [
        "คน",
        -8.370148169642286
      ],
      [
        "เกม",
        -8.370906660001605
      ],
      [
        "ัศ",
        -8.37743842636052
      ],
      [
        "เฉล",
        -8.38336652708634
      ],
      [
        "้อง",
        -8.38692479806104
      ],
      [
        "ิ่น",
        -8.387297167145242
      ],
      [
        "ไต",
        -8.392915469469402
      ],
      [
        "พยา",
        -8.396463742268276
      ],
      [
        "เช",
        -8.397676006780706
      ],
      [
        "การจัด",
        -8.399795239999136
      ],
      [
        "ือก",
        -8.408574118830556
      ],
      [
        "สั่ง",
        -8.415132042040575
      ],
      [
        "ะท",
        -8.419654646438365
      ],
      [
        "ฟิ",
        -8.422020263648932
      ],
      [
        "ควร",
        -8.426025058428959
      ],
      [
        "กคร",
        -8.427203215996862
      ],
      [
        "การปรับ",
        -8.431176125701128
      ],
      [
        "ดํา",
        -8.434325562379614
      ],
      [
        "การเรียนรู้",
        -8.441616753662329
      ],
      [
        "ฉ",
        -8.442579956291617
      ],
      [
        "ตํา",
        -8.443707168568613
      ],
      [
        "เพ",
        -8.447803661999417
      ],
      [
        "ียน",
        -8.451388813943394
      ],
      [
        "เรียน",
        -8.45499173790239
      ],
      [
        "ธิป",
        -8.459804039562565
      ],
      [
        "คริสต",
        -8.461154969664914
      ],
      [
        "จิต",
        -8.461470105125109
      ],
      [
        "เดีย",
        -8.462101877568884
      ],
      [
        "เอา",
        -8.462231519236672
      ],
      [
        "คู่",
        -8.464082132905595
      ],
      [
        "ล้าน",
        -8.46603970159212
      ],
      [
        "เมตร",
        -8.468068730757961
      ],
      [
        "ัก",
        -8.468097505277534
      ],
      [
        "สงคราม",
        -8.4683055001322
      ],
      [
        "โมเลกุล",
        -8.468308027990846
      ],
      [
        "กัมมันต",
        -8.468308837669113
      ],
      [
        "บันทึก",
        -8.468308957651976
      ],
      [
        "ความร่วมมือ",
        -8.468311539850362
      ],
      [
        "ความปลอดภัย",
        -8.468748093964763
      ],
      [
        "ไซเบอร์",
        -8.46882816835376
      ],
      [
        "เชื่อมต่อ",
        -8.46897972124039
      ],
      [
        "คณะ",
        -8.469144585250438
      ],
      [
        "เก่า",
        -8.469712959027294
      ],
      [
        "นทนา",
        -8.470102825507402
      ],
      [
        "เป",
        -8.470256078453025
      ],
      [
        "ส่งผล",
        -8.470749590663374
      ],
      [
        "ก่อนหน้า",
        -8.470871931967219
      ],
      [
        "เติบ",
        -8.471468411597609
      ],
      [
        "วอร์",
        -8.471921067256416
      ],
      [
        "ระบบสุ",
        -8.473118044316612
      ],
      [
        "สิ้น",
        -8.473753514469465
      ],
      [
        "ลึก",
        -8.47632179960392
      ],
      [
        "เชิงกล",
        -8.476375601989824
      ],
      [
        "ดังน",
        -8.4783175333616
      ],
      [
        "อัต",
        -8.47983733689209
      ],
      [
        "ทุ",
        -8.482603728578994
      ],
      [
        "กลับ",
        -8.486815485352293
      ],
      [
        "ลา",
        -8.49010817571709
      ],
      [
        "จุ",
        -8.492359753676942
      ],
      [
        "จัก",
        -8.492764074748113
      ],
      [
        "ิน",
        -8.494091179158813
      ],
      [
        "ม่เห",
        -8.495036221028545
      ],
      [
        "ษั",
        -8.495171903484671
      ],
      [
        "ดูด",
        -8.495251547285783
      ],
      [
        "ลาย",
        -8.496251352598332
      ],
      [
        "ปรับ",
        -8.498421685669781
      ],
      [
        "หรั",
        -8.49856423253743
      ],
      [
        "เท",
        -8.499916111594418
      ],
      [
        "เดียว",
        -8.51304449377367
      ],
      [
        "ดึง",
        -8.517566435822474
      ],
      [
        "ส่วนใ",
        -8.519432822852895
      ],
      [
        "องค์การ",
        -8.521079696457962
      ],
      [
        "บิ",
        -8.52346820285354
      ],
      [
        "สห",
        -8.523530058868696
      ],
      [
        "ผู้ค",
        -8.526438806968105
      ],
      [
        "ังก",
        -8.529322857287788
      ],
      [
        "ตอน",
        -8.533186112721019
      ],
      [
        "้อน",
        -8.537253816288224
      ],
      [
        "้นพ",
        -8.539250864187935
      ],
      [
        "บํา",
        -8.542195500837595
      ],
      [
        "มด",
        -8.542827507847813
      ],
      [
        "ิด",
        -8.546313672848493
      ],
      [
        "ิร์",
        -8.547394537763026
      ],
      [
        "นาน",
        -8.562978169787403
      ],
      [
        "บรร",
        -8.574957344417063
      ],
      [
        "สเป",
        -8.578954219526212
      ],
      [
        "ความสําคัญ",
        -8.58445398438614
      ],
      [
        "็",
        -8.591972033818362
      ],
      [
        "ัญญ",
        -8.600303578741771
      ],
      [
        "ตรวจ",
        -8.606522806685629
      ],
      [
        "ธิ",
        -8.611788714954724
      ],
      [
        "ทิศ",
        -8.612607584692677
      ],
      [
        "สถาน",
        -8.616160430577187
      ],
      [
        "เปลี่ยนแปลง",
        -8.61656381373044
      ],
      [
        "่น",
        -8.623524753957128
      ],
      [
        "ขณะ",
        -8.623639326397468
      ],
      [
        "บาบ",
        -8.62767256158203
      ],
      [
        "หนาแน่น",
        -8.63000095998166
      ],
      [
        "สภา",
        -8.631275209003388
      ],
      [
        "ดับ",
        -8.63132672864253
      ],
      [
        "รียบ",
        -8.63236857427256
      ],
      [
        "อุตสาหกรรม",
        -8.634974680923172
      ],
      [
        "การวางแผน",
        -8.63498285415524
      ],
      [
        "กระดาน",
        -8.634990577329964
      ],
      [
        "ชุมชน",
        -8.634995727740503
      ],
      [
        "นิเวศ",
        -8.634997107888704
      ],
      [
        "ตัดสิน",
        -8.635032857855608
      ],
      [
        "หลักสูตร",
        -8.635079363385632
      ],
      [
        "เจาะ",
        -8.635089598816208
      ],
      [
        "อาณา",
        -8.635138801473849
      ],
      [
        "เศษ",
        -8.635139966825477
      ],
      [
        "อุดม",
        -8.635295503987063
      ],
      [
        "ประสาท",
        -8.635320055138967
      ],
      [
        "ิสเต",
        -8.635553500782116
      ],
      [
        "นอกเหนือ",
        -8.635773418863728
      ],
      [
        "อดีต",
        -8.635879361875123
      ],
      [
        "สัญญา",
        -8.635886402967214
      ],
      [
        "ภาพถ่าย",
        -8.636534600483278
      ],
      [
        "น่าจะ",
        -8.636534711966984
      ],
      [
        "พูด",
        -8.63717556636223
      ],
      [
        "ประกาศ",
        -8.637276239356265
      ],
      [
        "หนัง",
        -8.637510555108134
      ],
      [
        "สหพันธ",
        -8.637764905096828
      ],
      [
        "บัตร",
        -8.638372665319748
      ],
      [
        "โยง",
        -8.639313836666421
      ],
      [
        "ประชาช",
        -8.639425094845933
      ],
      [
        "ไฮ",
        -8.640853114061617
      ],
      [
        "เชื้อ",
        -8.640903825047888
      ],
      [
        "้าว",
        -8.64109004105394
      ],
      [
        "ทั้งส",
        -8.64174321813368
      ],
      [
        "ลี",
        -8.642018277982343
      ],
      [
        "บอล",
        -8.642100860460186
      ],
      [
        "ควบค",
        -8.643740120277132
      ],
      [
        "ความหลากหลาย",
        -8.6446804949818
      ],
      [
        "สะด",
        -8.645199944003934
      ],
      [
        "ชัด",
        -8.646062542864133
      ],
      [
        "ิโล",
        -8.646115164253226
      ],
      [
        "ร้าน",
        -8.647765073006097
      ],
      [
        "โฟ",
        -8.64992901138569
      ],
      [
        "สํานัก",
        -8.651548821368014
      ],
      [
        "รั",
        -8.651618145377387
      ],
      [
        "ีชีวิต",
        -8.653380821966534
      ],
      [
        "ทัล",
        -8.654392172108285
      ],
      [
        "โซ",
        -8.65772866953418
      ],
      [
        "รวด",
        -8.660218137204897
      ],
      [
        "เวิร",
        -8.674802379116358
      ],
      [
        "สิก",
        -8.682467200245105
      ],
      [
        "ค่อ",
        -8.687221769920827
      ],
      [
        "แผ่น",
        -8.690108083020775
      ],
      [
        "อันด",
        -8.695070464900757
      ],
      [
        "อิน",
        -8.696197887028246
      ],
      [
        "โม",
        -8.69774123246768
      ],
      [
        "วา",
        -8.698645803015667
      ],
      [
        "สอน",
        -8.701027826930416
      ],
      [
        "รร",
        -8.701336354048403
      ],
      [
        "การพิ",
        -8.7030925546687
      ],
      [
        "เนื้อ",
        -8.71480124537274
      ],
      [
        "แถ",
        -8.714847237078581
      ],
      [
        "เน",
        -8.715553946685471
      ],
      [
        "คอน",
        -8.7194586305451
      ],
      [
        "ทธิ",
        -8.722868476195641
      ],
      [
        "ิม",
        -8.722934235222642
      ],
      [
        "ดิ",
        -8.725714357225113
      ],
      [
        "กลม",
        -8.735189636515026
      ],
      [
        "พา",
        -8.74243036761771
      ],
      [
        "ยาน",
        -8.746716499821384
      ],
      [
        "จา",
        -8.749194305037399
      ],
      [
        "ยนต",
        -8.750732369496356
      ],
      [
        "เอ็ก",
        -8.753108410940005
      ],
      [
        "้น",
        -8.75983255626439
      ],
      [
        "โครงการ",
        -8.761098577273595
      ],
      [
        "ทา",
        -8.762525094334073
      ],
      [
        "านุก",
        -8.775235326506566
      ],
      [
        "ส่อง",
        -8.77588708978484
      ],
      [
        "โห",
        -8.77815677253871
      ],
      [
        "ดเด",
        -8.782758240663737
      ],
      [
        "บุ",
        -8.782996071424911
      ],
      [
        "าศาสตร์",
        -8.788505022828618
      ],
      [
        "อี",
        -8.79006566072414
      ],
      [
        "บั",
        -8.79188189465755
      ],
      [
        "กีต",
        -8.802828199203374
      ],
      [
        "ตร์",
        -8.80348786869984
      ],
      [
        "ใช",
        -8.805773289655873
      ],
      [
        "ความเป็น",
        -8.807119010586762
      ],
      [
        "วิจัย",
        -8.813038040768916
      ],
      [
        "โพ",
        -8.813426452461878
      ],
      [
        "ประมวลผล",
        -8.814188145545835
      ],
      [
        "ตย",
        -8.815604163794017
      ],
      [
        "วก",
        -8.818008674461494
      ],
      [
        "คลิ",
        -8.8187888519554
      ],
      [
        "คาร",
        -8.825755642592403
      ],
      [
        "วั",
        -8.827677728391745
      ],
      [
        "คลา",
        -8.83050285908576
      ],
      [
        "ุณ",
        -8.832176677477237
      ],
      [
        "พฤติกรรม",
        -8.834974706022788
      ],
      [
        "งครามโลกครั้งที่",
        -8.834979087570659
      ],
      [
        "ศัพท์",
        -8.834980860430957
      ],
      [
        "ตุลา",
        -8.835035832989323
      ],
      [
        "ทุกวัน",
        -8.835625772487022
      ],
      [
        "วงจร",
        -8.83565842796125
      ],
      [
        "วิกิ",
        -8.835763284703752
      ],
      [
        "ใกล้",
        -8.835786634790134
      ],
      [
        "อุทก",
        -8.835837089112118
      ],
      [
        "สัตว์",
        -8.836086087767988
      ],
      [
        "สมม",
        -8.83616469104781
      ],
      [
        "เตรีย",
        -8.836525836845752
      ],
      [
        "การประมวล",
        -8.83677184194929
      ],
      [
        "บล็อก",
        -8.838012288972978
      ],
      [
        "เจริญ",
        -8.838366398175449
      ],
      [
        "ร้อย",
        -8.839550348937076
      ],
      [
        "ซ่",
        -8.840201976364307
      ],
      [
        "ถ่าย",
        -8.841212509228797
      ],
      [
        "สัจ",
        -8.843116883539881
      ],
      [
        "โปร",
        -8.843868084325212
      ],
      [
        "เผย",
        -8.845182766502104
      ],
      [
        "นิติ",
        -8.846651682000822
      ],
      [
        "รู",
        -8.846920951855498
      ],
      [
        "โทร",
        -8.84725490768122
      ],
      [
        "าท",
        -8.847352898255346
      ],
      [
        "การเฝ้า",
        -8.847402988293043
      ],
      [
        "อุต",
        -8.847592140866183
      ],
      [
        "เหมาะส",
        -8.847716979836378
      ],
      [
        "อัล",
        -8.849164825243687
      ],
      [
        "กร",
        -8.851115704853935
      ],
      [
        "เนีย",
        -8.853369534730412
      ],
      [
        "ทางกา",
        -8.856832374683842
      ],
      [
        "รวมตัว",
        -8.858094301615157
      ],
      [
        "ห่าง",
        -8.85860625280377
      ],
      [
        "ขอบ",
        -8.859456855110707
      ],
      [
        "วัต",
        -8.859493627500235
      ],
      [
        "ิสต์",
        -8.860020087839555
      ],
      [
        "โต้",
        -8.862359139520322
      ],
      [
        "ขวา",
        -8.862623641031613
      ],
      [
        "ราบ",
        -8.862756565754479
      ],
      [
        "โรง",
        -8.863072615778226
      ],
      [
        "่อง",
        -8.864426486319596
      ],
      [
        "ีย",
        -8.86841160806669
      ],
      [
        "ราะ",
        -8.870344148800525
      ],
      [
        "รเจ",
        -8.873671775806198
      ],
      [
        "แก",
        -8.875308057858192
      ],
      [
        "แกน",
        -8.877623541856453
      ],
      [
        "ความคิด",
        -8.877937624443089
      ],
      [
        "เทียม",
        -8.878224612002521
      ],
      [
        "อีย",
        -8.88287279985227
      ],
      [
        "เหมือนกั",
        -8.883991848105468
      ],
      [
        "โภ",
        -8.885268078736338
      ],
      [
        "เบอร์",
        -8.885373559991018
      ],
      [
        "าว",
        -8.889508625592923
      ],
      [
        "ขั้น",
        -8.89689128590014
      ],
      [
        "เจ",
        -8.90299113002323
      ],
      [
        "มีชื่อ",
        -8.903660704157353
      ],
      [
        "ยู",
        -8.906542529248389
      ],
      [
        "ที่อยู่",
        -8.912050949119774
      ],
      [
        "โครง",
        -8.91342846458876
      ],
      [
        "ตา",
        -8.914395144833847
      ],
      [
        "คง",
        -8.924109646700748
      ],
      [
        "การป",
        -8.925837179099197
      ],
      [
        "็บ",
        -8.926081677831936
      ],
      [
        "ชาย",
        -8.927092698059472
      ],
      [
        "เธอ",
        -8.928482172562838
      ],
      [
        "ปิ",
        -8.936599804884747
      ],
      [
        "ษ",
        -8.938020807738097
      ],
      [
        "กราฟิก",
        -8.93838470618287
      ],
      [
        "นคร",
        -8.942237178838678
      ],
      [
        "กระ",
        -8.943669768093015
      ],
      [
        "อน",
        -8.957111205209705
      ],
      [
        "ว้",
        -8.959097458883775
      ],
      [
        "กัด",
        -8.960694440830762
      ],
      [
        "ราชการ",
        -8.961195084948221
      ],
      [
        "จร",
        -8.962302383430709
      ],
      [
        "ลาด",
        -8.9625310011028
      ],
      [
        "แท",
        -8.964435792436385
      ],
      [
        "เรีย",
        -8.965608681891602
      ],
      [
        "่ง",
        -8.969794777402912
      ],
      [
        "ธาน",
        -8.98386871556956
      ],
      [
        "นข้า",
        -8.987601791419687
      ],
      [
        "เบิ",
        -8.992571710492172
      ],
      [
        "ิต",
        -8.996705423801016
      ],
      [
        "ห้า",
        -9.00062341858982
      ],
      [
        "รอน",
        -9.007649720234085
      ],
      [
        "กฐาน",
        -9.013687531398059
      ],
      [
        "ครอ",
        -9.016580199199119
      ],
      [
        "อด",
        -9.021215891882868
      ],
      [
        "ตะวันออก",
        -9.022270120726748
      ],
      [
        "บิว",
        -9.03260107423742
      ],
      [
        "ียร",
        -9.040686049974328
      ],
      [
        "้าง",
        -9.051106781342419
      ],
      [
        "มพ",
        -9.055441564046525
      ],
      [
        "เศ",
        -9.057761920851107
      ],
      [
        "มมา",
        -9.059162936154376
      ],
      [
        "ยน",
        -9.059795297786676
      ],
      [
        "ักษ",
        -9.07072240300438
      ],
      [
        "แก้",
        -9.071841761335449
      ],
      [
        "นอกจาก",
        -9.072702778526274
      ],
      [
        "ไห",
        -9.073406099595378
      ],
      [
        "ท่าน",
        -9.077547943143232
      ],
      [
        "ยั่งยืน",
        -9.080309577029468
      ],
      [
        "ัมภ",
        -9.081421336428987
      ],
      [
        "ทั่ว",
        -9.082439113502051
      ],
      [
        "แก้ไข",
        -9.08394779827684
      ],
      [
        "เศรษฐศาสตร์",
        -9.084974674827825
      ],
      [
        "ไวโอเล",
        -9.084975170064665
      ],
      [
        "กรุงเทพ",
        -9.084975841762681
      ],
      [
        "กําลัง",
        -9.084978967955543
      ],
      [
        "แข็ง",
        -9.084981642361557
      ],
      [
        "บรรทัด",
        -9.084982229780472
      ],
      [
        "บังคับ",
        -9.084993004266444
      ],
      [
        "สําเร็จ",
        -9.084994911093112
      ],
      [
        "หมุน",
        -9.084996692219207
      ],
      [
        "อัลตรา",
        -9.085000771452338
      ],
      [
        "เพชร",
        -9.085015598140366
      ],
      [
        "เทศกาล",
        -9.08501914709369
      ],
      [
        "ชาร์ลส",
        -9.085034940913177
      ],
      [
        "การแพทย์",
        -9.08509169947719
      ],
      [
        "การรู้จํา",
        -9.085101504726438
      ],
      [
        "ลัทธิ",
        -9.085173306695383
      ],
      [
        "จริยธรรม",
        -9.085388504915977
      ],
      [
        "ตาราง",
        -9.085395558348123
      ],
      [
        "เหมือง",
        -9.085555670984695
      ],
      [
        "พรรค",
        -9.086157874071192
      ],
      [
        "สุขภาพ",
        -9.086185024137768
      ],
      [
        "เอ็ม",
        -9.086346200817284
      ],
      [
        "เสมอ",
        -9.086765294186598
      ],
      [
        "ี่ยว",
        -9.087504217616639
      ],
      [
        "เครือ",
        -9.087606777616475
      ],
      [
        "กฎ",
        -9.087783342659897
      ],
      [
        "ริยา",
        -9.087881115293563
      ],
      [
        "ราคา",
        -9.08800551192084
      ],
      [
        "ชั่ว",
        -9.08823371285774
      ],
      [
        "ผลิต",
        -9.088297765624084
      ],
      [
        "ให้ความสําคัญ",
        -9.088795013107443
      ],
      [
        "เวล",
        -9.089019569874651
      ],
      [
        "ยุติ",
        -9.089056979772261
      ],
      [
        "นาที",
        -9.089629818202646
      ],
      [
        "จอห",
        -9.089880455559534
      ],
      [
        "เสรี",
        -9.090294919919794
      ],
      [
        "ซึ",
        -9.090343063062504
      ],
      [
        "ชุด",
        -9.09080273500305
      ],
      [
        "โดยตรง",
        -9.091163828882472
      ],
      [
        "ศาส",
        -9.094381041725187
      ],
      [
        "เชีย",
        -9.095431220130573
      ],
      [
        "เซ็น",
        -9.095732543977785
      ],
      [
        "ุ่ม",
        -9.096659895129223
      ],
      [
        "การแข่งขัน",
        -9.097179054339293
      ],
      [
        "ผสม",
        -9.10122141548889
      ],
      [
        "หลักฐาน",
        -9.104670906938695
      ],
      [
        "ปลด",
        -9.10496116114545
      ],
      [
        "รรถ",
        -9.108443509606795
      ],
      [
        "ภาวะ",
        -9.109730463012841
      ],
      [
        "ตน",
        -9.11128136089771
      ],
      [
        "นานา",
        -9.112024394836117
      ],
      [
        "คดี",
        -9.116156772645708
      ],
      [
        "ขาย",
        -9.122096747451677
      ],
      [
        "เข้ากับ",
        -9.123813189261876
      ],
      [
        "ลิฟ",
        -9.128713266911936
      ],
      [
        "่อน",
        -9.13056024875011
      ],
      [
        "ึก",
        -9.131148526022734
      ],
      [
        "ลูก",
        -9.131458817622365
      ],
      [
        "ฮอ",
        -9.131692909695374
      ],
      [
        "เชื่อถือ",
        -9.136659671842352
      ],
      [
        "หล",
        -9.136875653921908
      ],
      [
        "ขอ",
        -9.141775730387348
      ],
      [
        "บา",
        -9.145593865758773
      ],
      [
        "การเข",
        -9.151254529936015
      ],
      [
        "สโต",
        -9.151350834021384
      ],
      [
        "ลอ",
        -9.153087777135802
      ],
      [
        "สิบ",
        -9.154623091680739
      ],
      [
        "กรุง",
        -9.154943766656501
      ],
      [
        "ฤ",
        -9.158176550051941
      ],
      [
        "เคร",
        -9.164723235273607
      ],
      [
        "กรอบ",
        -9.167663532386642
      ],
      [
        "เช่",
        -9.167939723681403
      ],
      [
        "เชื่อม",
        -9.17046990122903
      ],
      [
        "เซอร์",
        -9.175741892790036
      ],
      [
        "มีผล",
        -9.177828501200592
      ],
      [
        "็ก",
        -9.178320354475192
      ],
      [
        "ื",
        -9.181300067779114
      ],
      [
        "เปล่",
        -9.218883658638038
      ],
      [
        "ฟรา",
        -9.219151512059884
      ],
      [
        "ได",
        -9.222335628171614
      ],
      [
        "โท",
        -9.233007836298029
      ],
      [
        "ก่อนที่",
        -9.233488064450658
      ],
      [
        "ีย์",
        -9.234512204259229
      ],
      [
        "ออ",
        -9.239784648571362
      ],
      [
        "้าย",
        -9.241803389973493
      ],
      [
        "ก็ต",
        -9.242449323765658
      ],
      [
        "รัม",
        -9.242668834211793
      ],
      [
        "สนาม",
        -9.243361346658375
      ],
      [
        "ัย",
        -9.245952252492819
      ],
      [
        "รับร",
        -9.248411760595081
      ],
      [
        "ูด",
        -9.253042012204272
      ],
      [
        "พิพ",
        -9.25390683462729
      ],
      [
        "ุนิยม",
        -9.254539878344827
      ],
      [
        "ลั",
        -9.262813393171353
      ],
      [
        "นามแ",
        -9.271888011738
      ],
      [
        "ผส",
        -9.27402689547984
      ],
      [
        "วาง",
        -9.275799075692417
      ],
      [
        "ชล",
        -9.276625035713433
      ],
      [
        "คําน",
        -9.27746078213448
      ],
      [
        "แด",
        -9.277693610360584
      ],
      [
        "ิทธิ",
        -9.280189086771836
      ],
      [
        "คาน",
        -9.280290336302993
      ],
      [
        "หัน",
        -9.285094139810111
      ],
      [
        "สัน",
        -9.29067260357323
      ],
      [
        "แน่",
        -9.292696215739294
      ],
      [
        "ี่",
        -9.292757512479588
      ],
      [
        "วิด",
        -9.304256319933476
      ],
      [
        "ความจํา",
        -9.313834138415363
      ],
      [
        "ทู",
        -9.317278257440664
      ],
      [
        "์ด",
        -9.31895894648971
      ],
      [
        "ร้อง",
        -9.321034330651397
      ],
      [
        "ลิม",
        -9.330477663590592
      ],
      [
        "สต์",
        -9.332049253639799
      ],
      [
        "ตร",
        -9.333665698212329
      ],
      [
        "รรณ",
        -9.336931705622671
      ],
      [
        "แฟร",
        -9.345759127063122
      ],
      [
        "ั่น",
        -9.356181634242407
      ],
      [
        "ทิน",
        -9.358855794779826
      ],
      [
        "าก",
        -9.36138539689408
      ],
      [
        "๊",
        -9.365885291670208
      ],
      [
        "คู",
        -9.370174578546239
      ],
      [
        "แพ",
        -9.370477882429805
      ],
      [
        "ปล",
        -9.3746889814458
      ],
      [
        "อิสระ",
        -9.375324813474565
      ],
      [
        "ฟเ",
        -9.379814278092038
      ],
      [
        "นิว",
        -9.379838950391617
      ],
      [
        "อริ",
        -9.380185462826262
      ],
      [
        "อุ",
        -9.384361753318418
      ],
      [
        "ดน",
        -9.388920027896209
      ],
      [
        "รป",
        -9.391375776068132
      ],
      [
        "ทด",
        -9.394274615549037
      ],
      [
        "เฝ้า",
        -9.396553423102391
      ],
      [
        "กัง",
        -9.39919144007797
      ],
      [
        "สรร",
        -9.402800731328027
      ],
      [
        "นุษย",
        -9.407451021770012
      ],
      [
        "เรื่อ",
        -9.408175549085412
      ],
      [
        "เมโ",
        -9.408243401790283
      ],
      [
        "หาร",
        -9.409558919256824
      ],
      [
        "ความร",
        -9.411190528586435
      ],
      [
        "เฉ",
        -9.413680464029492
      ],
      [
        "แวดล้อม",
        -9.417174354160416
      ],
      [
        "ความมั่นคง",
        -9.418308014556505
      ],
      [
        "การอนุรักษ์",
        -9.418308047273085
      ],
      [
        "นิวเคลีย",
        -9.418308179264038
      ],
      [
        "สมเด็จพระ",
        -9.418308418416164
      ],
      [
        "ราชการบริหารส่วน",
        -9.418309663932618
      ],
      [
        "ฟื้น",
        -9.418311463886505
      ],
      [
        "ณฑ์",
        -9.418312962267898
      ],
      [
        "ไมโคร",
        -9.418314203013294
      ],
      [
        "ศักยภาพ",
        -9.418325061855278
      ],
      [
        "คํานึงถึง",
        -9.41832886496085
      ],
      [
        "สมบูรณ",
        -9.41834061850055
      ],
      [
        "พืช",
        -9.41837544076172
      ],
      [
        "ับเบิล",
        -9.418459962973085
      ],
      [
        "กติกา",
        -9.418480797378775
      ],
      [
        "บรรลุ",
        -9.418489641888737
      ],
      [
        "ล้วน",
        -9.418521095121188
      ],
      [
        "จํานวนเต็ม",
        -9.41873672106878
      ],
      [
        "สืบ",
        -9.418839028767243
      ],
      [
        "สันติ",
        -9.418927621359003
      ],
      [
        "อาหาร",
        -9.419863046579795
      ],
      [
        "ศักดิ์",
        -9.420398248933372
      ],
      [
        "อัตรา",
        -9.420543859789442
      ],
      [
        "ศิลปะ",
        -9.420811833323588
      ],
      [
        "ขีด",
        -9.420831469525758
      ],
      [
        "สต",
        -9.420865984488852
      ],
      [
        "ทะ",
        -9.421138295676624
      ],
      [
        "แทรก",
        -9.42188672808
      ],
      [
        "้ม",
        -9.422578000231164
      ],
      [
        "เจ้า",
        -9.422659899023817
      ],
      [
        "ดุล",
        -9.422719994153262
      ],
      [
        "นวา",
        -9.423389115204252
      ],
      [
        "ไม้",
        -9.423874239345457
      ],
      [
        "ภัย",
        -9.424549060042661
      ],
      [
        "สหรัฐ",
        -9.425311469738118
      ],
      [
        "เวียน",
        -9.425490472505324
      ],
      [
        "คีย์",
        -9.428793899416213
      ],
      [
        "้าน",
        -9.428963027295346
      ],
      [
        "พารา",
        -9.429145557326555
      ],
      [
        "ย้อน",
        -9.431758059999343
      ],
      [
        "มูล",
        -9.431836465012495
      ],
      [
        "การบริหาร",
        -9.432128751728602
      ],
      [
        "จู",
        -9.43217193360303
      ],
      [
        "ลท์",
        -9.432652210955009
      ],
      [
        "ตลาด",
        -9.432773555224456
      ],
      [
        "ําเ",
        -9.432876798856814
      ],
      [
        "มือง",
        -9.434932347084997
      ],
      [
        "ถึงแม้",
        -9.434973720324955
      ],
      [
        "ษณ",
        -9.435947125256103
      ],
      [
        "ซิส",
        -9.437046622216654
      ],
      [
        "ระบ",
        -9.437206364757339
      ],
      [
        "มาร์กซ",
        -9.438543441984654
      ],
      [
        "แฮ",
        -9.439877703450296
      ],
      [
        "ผู้บ",
        -9.441657575848819
      ],
      [
        "แส",
        -9.44247588477322
      ],
      [
        "โปเ",
        -9.443760988782836
      ],
      [
        "าภิ",
        -9.443776363913255
      ],
      [
        "ทวี",
        -9.443944891447002
      ],
      [
        "นอ",
        -9.444328447658137
      ],
      [
        "วรรณ",
        -9.44445226795402
      ],
      [
        "ไร",
        -9.444494412193897
      ],
      [
        "ขาด",
        -9.444750238920722
      ],
      [
        "ทอด",
        -9.446095446028243
      ],
      [
        "ประจ",
        -9.447621202021578
      ],
      [
        "ขาว",
        -9.448989751500612
      ],
      [
        "การแก้",
        -9.449025295234138
      ],
      [
        "เลย",
        -9.450503511194334
      ],
      [
        "ลี่ย",
        -9.451989439526875
      ],
      [
        "ศาล",
        -9.452608043038616
      ],
      [
        "อนุ",
        -9.453274869241746
      ],
      [
        "นั",
        -9.46149640514041
      ],
      [
        "ประสบ",
        -9.462297952574184
      ],
      [
        "ดัง",
        -9.462823110032097
      ],
      [
        "แปลง",
        -9.463545423311594
      ],
      [
        "าญา",
        -9.465964511570363
      ],
      [
        "ป้อง",
        -9.46638390428481
      ],
      [
        "ต่อไป",
        -9.467681384006168
      ],
      [
        "ภาครัฐ",
        -9.473401712345991
      ],
      [
        "ฝั",
        -9.474420100954793
      ],
      [
        "ความส",
        -9.474879945951143
      ],
      [
        "ยก",
        -9.47704922881874
      ],
      [
        "แปร",
        -9.477551574107878
      ],
      [
        "สัม",
        -9.478752051902418
      ],
      [
        "บ่ง",
        -9.478893191222824
      ],
      [
        "คุ",
        -9.480227970653283
      ],
      [
        "เฮ",
        -9.480496974530647
      ],
      [
        "คอร์",
        -9.487145148895411
      ],
      [
        "ตก",
        -9.489389428699104
      ],
      [
        "หวั",
        -9.489687549297512
      ],
      [
        "อบ",
        -9.490978682519623
      ],
      [
        "สั",
        -9.497882770534996
      ],
      [
        "เกียร",
        -9.500430510959772
      ],
      [
        "รู้จ",
        -9.502307652099333
      ],
      [
        "การประเมินผล",
        -9.50313313412104
      ],
      [
        "เป็นไป",
        -9.504664462311474
      ],
      [
        "ีพิ",
        -9.507203823436981
      ],
      [
        "จับ",
        -9.509079798356884
      ],
      [
        "นโยบาย",
        -9.511710632737019
      ],
      [
        "นิวตร",
        -9.51683611212103
      ],
      [
        "าง",
        -9.519476714982567
      ],
      [
        "่วง",
        -9.520755003603357
      ],
      [
        "แอน",
        -9.52268279573491
      ],
      [
        "ลด",
        -9.526500461067588
      ],
      [
        "สัญชาต",
        -9.533077972271247
      ],
      [
        "กรรมการ",
        -9.536925548364124
      ],
      [
        "ังก์",
        -9.537646752447106
      ],
      [
        "ดาร",
        -9.541356419528004
      ],
      [
        "เดิน",
        -9.542033221415274
      ],
      [
        "ลม",
        -9.544845497266422
      ],
      [
        "ือน",
        -9.554433564481233
      ],
      [
        "โค้",
        -9.55547345020402
      ],
      [
        "มาร์",
        -9.55679256364702
      ],
      [
        "ชั",
        -9.56178487009653
      ],
      [
        "ัว",
        -9.56612248545569
      ],
      [
        "การจัดการ",
        -9.567956631063554
      ],
      [
        "ฮั",
        -9.573204528893836
      ],
      [
        "ดล",
        -9.573204699276396
      ],
      [
        "สี",
        -9.575179356791109
      ],
      [
        "่องส",
        -9.577755379782957
      ],
      [
        "เลอ",
        -9.580409298197678
      ],
      [
        "ว้า",
        -9.582059570623441
      ],
      [
        "ในทาง",
        -9.582230072998616
      ],
      [
        "ยะ",
        -9.585011809272602
      ],
      [
        "ริก",
        -9.589340971308483
      ],
      [
        "วัล",
        -9.590535761373877
      ],
      [
        "บ้า",
        -9.594003101710262
      ],
      [
        "ปรับตัว",
        -9.594365534698873
      ],
      [
        "พร",
        -9.59919359580953
      ],
      [
        "รมแ",
        -9.599270106074409
      ],
      [
        "รัก",
        -9.603645567384765
      ],
      [
        "ุต",
        -9.603948980953994
      ],
      [
        "กุม",
        -9.613011658152702
      ],
      [
        "ัตต",
        -9.616042823097493
      ],
      [
        "เอีย",
        -9.616070300222296
      ],
      [
        "มั",
        -9.62365546663984
      ],
      [
        "นาบ",
        -9.623926574948966
      ],
      [
        "ัตร",
        -9.629748265877396
      ],
      [
        "วน",
        -9.642361982327554
      ],
      [
        "ตาล",
        -9.651594588323857
      ],
      [
        "ไท",
        -9.654746712035951
      ],
      [
        "สิ",
        -9.65750765284507
      ],
      [
        "ผั",
        -9.664347855460592
      ],
      [
        "กิ",
        -9.667841231482697
      ],
      [
        "เลิ",
        -9.669529689989421
      ],
      [
        "กราฟ",
        -9.670437629722434
      ],
      [
        "ประห",
        -9.671049821971325
      ],
      [
        "ปก",
        -9.67581047449399
      ],
      [
        "รม",
        -9.676035239979406
      ],
      [
        "นอน",
        -9.676983141023818
      ],
      [
        "การประ",
        -9.6771532107589
      ],
      [
        "ชั่",
        -9.679659878398802
      ],
      [
        "การจํา",
        -9.683905378297029
      ],
      [
        "ากร",
        -9.684906303219687
      ],
      [
        "ทางการเ",
        -9.686556718419506
      ],
      [
        "เป็นตัว",
        -9.6865910187148
      ],
      [
        "อส",
        -9.689525604237858
      ],
      [
        "คาด",
        -9.691054666847602
      ],
      [
        "ยาย",
        -9.697166962549316
      ],
      [
        "งเศ",
        -9.703958537848251
      ],
      [
        "ลุ",
        -9.705635813260429
      ],
      [
        "สน",
        -9.712862708707364
      ],
      [
        "ริม",
        -9.718022686107647
      ],
      [
        "ม่",
        -9.722120924889607
      ],
      [
        "ั้",
        -9.729565095372035
      ],
      [
        "พร้อม",
        -9.730582536383984
      ],
      [
        "ท์",
        -9.741212041524744
      ],
      [
        "ีช",
        -9.74523757073488
      ],
      [
        "ไล",
        -9.756352253780014
      ],
      [
        "วิท",
        -9.757498610259642
      ],
      [
        "ลัม",
        -9.758017244142547
      ],
      [
        "วด",
        -9.762931629558121
      ],
      [
        "ขา",
        -9.764315288225438
      ],
      [
        "ังห",
        -9.772079294141864
      ],
      [
        "นโยบายการ",
        -9.782058980452753
      ],
      [
        "การวิเคราะห์",
        -9.786944867170082
      ],
      [
        "เหมือน",
        -9.787683052076675
      ],
      [
        "อฟ",
        -9.789306827124493
      ],
      [
        "ฟัง",
        -9.793030234308688
      ],
      [
        "แช",
        -9.79487487060326
      ],
      [
        "ประเมิน",
        -9.806059981745147
      ],
      [
        "เลโ",
        -9.812934316848823
      ],
      [
        "เข",
        -9.813253502877794
      ],
      [
        "ลซ",
        -9.817303865640861
      ],
      [
        "กษ์",
        -9.820435710134053
      ],
      [
        "อ็อ",
        -9.823880005847533
      ],
      [
        "บ่อ",
        -9.82525292083021
      ],
      [
        "แบร",
        -9.838219901218316
      ],
      [
        "ทร",
        -9.845002357432607
      ],
      [
        "คอส",
        -9.847202741035513
      ],
      [
        "ถือได้",
        -9.850838758098588
      ],
      [
        "ญาต",
        -9.857929808301519
      ],
      [
        "สะ",
        -9.869111175427932
      ],
      [
        "ครา",
        -9.869920206215873
      ],
      [
        "้ํา",
        -9.873172867035722
      ],
      [
        "ปัญญา",
        -9.878594947717186
      ],
      [
        "พั",
        -9.879074753270165
      ],
      [
        "ท่องเที่ยว",
        -9.885699244115337
      ],
      [
        "รัด",
        -9.893764131783739
      ],
      [
        "ลาส",
        -9.894566408878209
      ],
      [
        "บริหาร",
        -9.896831056852662
      ],
      [
        "มนุษย",
        -9.899006271916393
      ],
      [
        "พันธุ",
        -9.899335293310394
      ],
      [
        "นซ",
        -9.900726779503948
      ],
      [
        "บัน",
        -9.90149440338286
      ],
      [
        "ศิลป",
        -9.914252804697355
      ],
      [
        "ข้",
        -9.9159002244999
      ],
      [
        "ึ่ง",
        -9.917611915388523
      ],
      [
        "ฬา",
        -9.918114901818615
      ],
      [
        "พิธี",
        -9.918188217743904
      ],
      [
        "ฏ",
        -9.918259160059554
      ],
      [
        "ฺ",
        -9.918308007088648
      ],
      [
        "2",
        -9.918308007088648
      ],
      [
        "1",
        -9.918308007088648
      ],
      [
        "วินิจฉัย",
        -9.91830800711648
      ],
      [
        "สตาร์ทอัพ",
        -9.918308007118132
      ],
      [
        "ข้าราชการพลเรือน",
        -9.918308011376379
      ],
      [
        "ผลิตภัณฑ์",
        -9.918308012530606
      ],
      [
        "พระราชเสาวนีย",
        -9.918308044744627
      ],
      [
        "เครื่องราชอิสริย",
        -9.918308074006186
      ],
      [
        "กุญแจ",
        -9.918308164697478
      ],
      [
        "ธภัณฑ์",
        -9.918308172285828
      ],
      [
        "อินเทอร์เน็ต",
        -9.91830824899047
      ],
      [
        "กิโลกรัม",
        -9.918308366349242
      ],
      [
        "ปัจเจก",
        -9.918308766143289
      ],
      [
        "โซเชียล",
        -9.918310323319634
      ],
      [
        "สวัสดิ",
        -9.918322241859721
      ],
      [
        "โรคหัวใจ",
        -9.918330361351801
      ],
      [
        "นวัตกรรม",
        -9.918341433163636
      ],
      [
        "วิธีพิจารณาความ",
        -9.918356781057796
      ],
      [
        "สับสน",
        -9.918385118275499
      ],
      [
        "เจ็ด",
        -9.918396876167991
      ],
      [
        "กษัตร",
        -9.918411159269963
      ],
      [
        "การเรียนการสอน",
        -9.91841735785764
      ],
      [
        "การป้องกัน",
        -9.918427785963754
      ],
      [
        "ในการแก้ไขปัญหา",
        -9.918447817358171
      ],
      [
        "หมุนเวียน",
        -9.918502655178726
      ],
      [
        "ปริญญา",
        -9.918505728599063
      ],
      [
        "ทรัพย์",
        -9.918521595365581
      ],
      [
        "ยึด",
        -9.918722911227151
      ],
      [
        "พระราชพิธี",
        -9.918850301550252
      ],
      [
        "กิโลเมตร",
        -9.918968600186545
      ],
      [
        "ซื้อ",
        -9.919018302909302
      ],
      [
        "การบริหารจัดการ",
        -9.919548730744904
      ],
      [
        "แพ่ง",
        -9.920431964050753
      ],
      [
        "ภูมิปัญญา",
        -9.920542751299008
      ],
      [
        "เอ็ด",
        -9.9207682637024
      ],
      [
        "ชื่นช",
        -9.92086020412974
      ],
      [
        "ตกลง",
        -9.920983359779264
      ],
      [
        "ราชเลขา",
        -9.921376074067199
      ],
      [
        "เสื่อม",
        -9.921511621450728
      ],
      [
        "ต่ํา",
        -9.921562043781814
      ],
      [
        "เบีย",
        -9.92199804114788
      ],
      [
        "เกษตรกรรม",
        -9.922066431349581
      ],
      [
        "ล็อก",
        -9.922074869013576
      ],
      [
        "เบิร์",
        -9.922482230046327
      ],
      [
        "ยูเร",
        -9.923861866714676
      ],
      [
        "ฮิต",
        -9.923887134158969
      ],
      [
        "ละคร",
        -9.924370786040456
      ],
      [
        "ปัจจัย",
        -9.92448751515731
      ],
      [
        "จิตเวช",
        -9.925227376547348
      ],
      [
        "พุต",
        -9.925721740580052
      ],
      [
        "ระบบการจัดการ",
        -9.927112021184664
      ],
      [
        "การลงทุน",
        -9.928232880567812
      ],
      [
        "อย่างยั่งยืน",
        -9.929099943806648
      ],
      [
        "หมื่น",
        -9.92936776724621
      ],
      [
        "พันธุศาสตร์",
        -9.930184046411188
      ],
      [
        "คลัง",
        -9.930885787529878
      ],
      [
        "ทําเล",
        -9.932440307368779
      ],
      [
        "การบ",
        -9.93255545660659
      ],
      [
        "แท้",
        -9.932888025682775
      ],
      [
        "ข่าย",
        -9.934280702292044
      ],
      [
        "บรรพ",
        -9.93431927155571
      ],
      [
        "อินทร",
        -9.934529296326174
      ],
      [
        "ปลูก",
        -9.937052357485708
      ],
      [
        "ธุ",
        -9.938979317690777
      ],
      [
        "การบูรณาการ",
        -9.939840611137388
      ],
      [
        "ภาษี",
        -9.940937946842139
      ],
      [
        "ูล",
        -9.94131224801355
      ],
      [
        "ข่ง",
        -9.942434339995287
      ],
      [
        "รณร",
        -9.942695834355389
      ],
      [
        "ไหล",
        -9.942925202357923
      ],
      [
        "อัป",
        -9.943722196838186
      ],
      [
        "รียน",
        -9.944818091096874
      ],
      [
        "มวลรวม",
        -9.944921251562686
      ],
      [
        "ธาร",
        -9.946750536443954
      ],
      [
        "ชาติพันธุ์",
        -9.947293621055191
      ],
      [
        "จฉ",
        -9.947653192547115
      ],
      [
        "ออฟ",
        -9.949329532688521
      ],
      [
        "ฮัม",
        -9.952608860668013
      ],
      [
        "อั",
        -9.953275380618923
      ],
      [
        "โธ",
        -9.953672449944015
      ],
      [
        "ท่องเที่ยวเชิง",
        -9.95389974677421
      ],
      [
        "ิปัญญา",
        -9.958583312518275
      ],
      [
        "เจอร์",
        -9.959774464791197
      ],
      [
        "เยาว",
        -9.961332195579221
      ],
      [
        "ฮาร์ท",
        -9.964938476568445
      ],
      [
        "เคีย",
        -9.966692816750797
      ],
      [
        "จ้าง",
        -9.968469012932005
      ],
      [
        "ตรวจว",
        -9.972229598364855
      ],
      [
        "เรือ",
        -9.972406039521074
      ],
      [
        "คุ้",
        -9.973969606856617
      ],
      [
        "หัส",
        -9.974357927182435
      ],
      [
        "ยั",
        -9.974937239265422
      ],
      [
        "จากน",
        -9.976418372189183
      ],
      [
        "ชิง",
        -9.977307584261256
      ],
      [
        "อาห",
        -9.977383938954056
      ],
      [
        "ดิจิ",
        -9.97892809909726
      ],
      [
        "สมุ",
        -9.983201723562555
      ],
      [
        "บัลล",
        -9.983203343970414
      ],
      [
        "ก้อน",
        -9.985159044891226
      ],
      [
        "ฟา",
        -9.986303749209853
      ],
      [
        "ธ์",
        -9.989117340951523
      ],
      [
        "่งเ",
        -9.99100236201969
      ],
      [
        "เป็นอิสระ",
        -9.992959556124706
      ],
      [
        "โองการ",
        -9.993005144648876
      ],
      [
        "เบล",
        -9.993235838274993
      ],
      [
        "โรค",
        -9.995146973623866
      ],
      [
        "อิส",
        -9.998801532997733
      ],
      [
        "บรมราช",
        -10.004582535202468
      ],
      [
        "ฮอล",
        -10.005112108481784
      ],
      [
        "ื่อม",
        -10.00615362886328
      ],
      [
        "การตรวจ",
        -10.010326554109144
      ],
      [
        "ซา",
        -10.012728131240038
      ],
      [
        "ธิบ",
        -10.016580359630778
      ],
      [
        "บริพ",
        -10.01692862708289
      ],
      [
        "การเรียนรู้แบบ",
        -10.01714241545773
      ],
      [
        "ตอ",
        -10.017497875803036
      ],
      [
        "เรียบ",
        -10.020029893710623
      ],
      [
        "การเรียน",
        -10.022222023973072
      ],
      [
        "เจร",
        -10.023017663349858
      ],
      [
        "สอดคล้องกั",
        -10.024331928328305
      ],
      [
        "ลัว",
        -10.024428597695042
      ],
      [
        "ะไ",
        -10.026129969575798
      ],
      [
        "สาระ",
        -10.028418727700576
      ],
      [
        "การพัฒนาท",
        -10.028773200020805
      ],
      [
        "ําเส",
        -10.029461570583699
      ],
      [
        "กรม",
        -10.029470223013867
      ],
      [
        "แมน",
        -10.034073300532837
      ],
      [
        "้างสรร",
        -10.034766635629008
      ],
      [
        "ครอบ",
        -10.03732248400807
      ],
      [
        "การรักษา",
        -10.049963483214814
      ],
      [
        "ฮา",
        -10.052300435628597
      ],
      [
        "แปลก",
        -10.056745427820832
      ],
      [
        "ห้",
        -10.061814832566768
      ],
      [
        "โมเ",
        -10.06674312462762
      ],
      [
        "เลื่อ",
        -10.06827131824712
      ],
      [
        "งทุน",
        -10.069770504340148
      ],
      [
        "ตัด",
        -10.070153764387463
      ],
      [
        "ฟอร์",
        -10.071272429119807
      ],
      [
        "เพื่อการพัฒนา",
        -10.071283196716925
      ],
      [
        "วิล",
        -10.074472629995967
      ],
      [
        "ทิศตะวัน",
        -10.077821558459556
      ],
      [
        "อะ",
        -10.08831542241915
      ],
      [
        "แข",
        -10.096872385991784
      ],
      [
        "ญญา",
        -10.09886161568089
      ],
      [
        "ฟร",
        -10.099112792870784
      ],
      [
        "นาโ",
        -10.09931495219542
      ],
      [
        "ซาน",
        -10.100386344835476
      ],
      [
        "็อน",
        -10.10520478418418
      ],
      [
        "ช่",
        -10.10636006550577
      ],
      [
        "แน",
        -10.111646799409996
      ],
      [
        "วลา",
        -10.112843827654755
      ],
      [
        "ปร",
        -10.113129900099093
      ],
      [
        "พจ",
        -10.116647077056374
      ],
      [
        "เดต",
        -10.117336617997239
      ],
      [
        "เลฟ",
        -10.117495346841103
      ],
      [
        "กี่",
        -10.121337121698488
      ],
      [
        "ันที่",
        -10.121937010542348
      ],
      [
        "หลอ",
        -10.122232999420621
      ],
      [
        "บิด",
        -10.122301983510429
      ],
      [
        "ควอ",
        -10.12398147527792
      ],
      [
        "เก้า",
        -10.124592593963394
      ],
      [
        "เข้ม",
        -10.12660614668639
      ],
      [
        "ระเบ",
        -10.128704523555449
      ],
      [
        "หน",
        -10.133578081469707
      ],
      [
        "ล่",
        -10.135863916219083
      ],
      [
        "เท่ากั",
        -10.138673752753283
      ],
      [
        "คา",
        -10.138783840113351
      ],
      [
        "งการ",
        -10.139399004202922
      ],
      [
        "อนาคต",
        -10.139853491155575
      ],
      [
        "ขาน",
        -10.14975117285519
      ],
      [
        "ารณ์",
        -10.159008039387388
      ],
      [
        "โดยส่วน",
        -10.162618244127497
      ],
      [
        "ป่า",
        -10.165084592530501
      ],
      [
        "มิต",
        -10.171959726932663
      ],
      [
        "ผู้เรียน",
        -10.172511538462444
      ],
      [
        "ังค",
        -10.17296224729651
      ],
      [
        "ัชน",
        -10.177703684399553
      ],
      [
        "หาย",
        -10.184319952208448
      ],
      [
        "บอก",
        -10.185502831637919
      ],
      [
        "าชี",
        -10.192247723454887
      ],
      [
        "ความเ",
        -10.19946757741413
      ],
      [
        "ไค",
        -10.20028446773145
      ],
      [
        "วยความ",
        -10.207497487434846
      ],
      [
        "ดาวเ",
        -10.211690902081466
      ],
      [
        "ในยุค",
        -10.211829630200096
      ],
      [
        "ยธรรม",
        -10.212823338831273
      ],
      [
        "มีส่วน",
        -10.218271687290564
      ],
      [
        "อําน",
        -10.223220261061607
      ],
      [
        "ลาก",
        -10.225505105991726
      ],
      [
        "วิส",
        -10.239720305007543
      ],
      [
        "ิตย",
        -10.248407560724326
      ],
      [
        "ทอ",
        -10.250920020620827
      ],
      [
        "์เฟ",
        -10.266345878828309
      ],
      [
        "ต้องตาม",
        -10.269634265735936
      ],
      [
        "ืน",
        -10.278341717783418
      ],
      [
        "สาว",
        -10.289572715942406
      ],
      [
        "่อให้",
        -10.289633559762892
      ],
      [
        "กี",
        -10.291094279621515
      ],
      [
        "ข้า",
        -10.296795435657636
      ],
      [
        "นาธิ",
        -10.297265513611954
      ],
      [
        "การแสดง",
        -10.299355524180868
      ],
      [
        "ดําร",
        -10.300913567752083
      ],
      [
        "อที",
        -10.303829176891721
      ],
      [
        "พหุน",
        -10.308996280518967
      ],
      [
        "ญา",
        -10.312008416263616
      ],
      [
        "ุกเ",
        -10.317159839884761
      ],
      [
        "ียว",
        -10.31922160310664
      ],
      [
        "ื่อ",
        -10.32217847408599
      ],
      [
        "าวร",
        -10.327361123513958
      ],
      [
        "ทุกค",
        -10.329727384787123
      ],
      [
        "ีบท",
        -10.335342180018317
      ],
      [
        "ื้อเพล",
        -10.349946802248729
      ],
      [
        "ารี",
        -10.362180649445222
      ],
      [
        "ณี",
        -10.375042812644129
      ],
      [
        "คล็",
        -10.37949830962907
      ],
      [
        "นาซ",
        -10.415180491632455
      ],
      [
        "็กซ",
        -10.417935339735923
      ],
      [
        "ภา",
        -10.421217208441426
      ],
      [
        "โดม",
        -10.423406659848517
      ],
      [
        "จะเป็น",
        -10.427242204464104
      ],
      [
        "ถูกต้อง",
        -10.430247858768286
      ],
      [
        "กทาง",
        -10.435271982426867
      ],
      [
        "ซอ",
        -10.435609863843888
      ],
      [
        "ุด",
        -10.438960703809819
      ],
      [
        "การกระ",
        -10.448123436578607
      ],
      [
        "โคล",
        -10.450580819373561
      ],
      [
        "ตัวอ",
        -10.463290971239076
      ],
      [
        "หลว",
        -10.468574191554032
      ],
      [
        "ละเอ",
        -10.468814748591017
      ],
      [
        "็อ",
        -10.472135406722828
      ],
      [
        "นิยา",
        -10.480553901497004
      ],
      [
        "รรค์",
        -10.48135091703151
      ],
      [
        "คว",
        -10.481455914201911
      ],
      [
        "าไว",
        -10.486109689906717
      ],
      [
        "การพัฒนาผู้",
        -10.490493929681564
      ],
      [
        "ทัน",
        -10.491215204794372
      ],
      [
        "ิโ",
        -10.498109752955065
      ],
      [
        "แม",
        -10.505548041798175
      ],
      [
        "ล็อ",
        -10.508568838473208
      ],
      [
        "ราชานุ",
        -10.516086683679505
      ],
      [
        "กั",
        -10.524493278259477
      ],
      [
        "วาร",
        -10.528913613659403
      ],
      [
        "คอ",
        -10.530601102784816
      ],
      [
        "ฝน",
        -10.533860865864959
      ],
      [
        "ปอร์",
        -10.538592781348537
      ],
      [
        "ตั",
        -10.581049604689069
      ],
      [
        "ร่",
        -10.6028401585024
      ],
      [
        "ยาก",
        -10.611011601417573
      ],
      [
        "ประก",
        -10.61547310434345
      ],
      [
        "ชม",
        -10.61862934719537
      ],
      [
        "งสั",
        -10.620713925812534
      ],
      [
        "ศั",
        -10.620986123620575
      ],
      [
        "ประกัน",
        -10.630298592808854
      ],
      [
        "นิต",
        -10.632617958270584
      ],
      [
        "รัว",
        -10.642894553380762
      ],
      [
        "ข้อส",
        -10.647004757443986
      ],
      [
        "ําล",
        -10.652532964583694
      ],
      [
        "ดั",
        -10.65447172128004
      ],
      [
        "นิวต",
        -10.660921714340212
      ],
      [
        "รกรรม",
        -10.664302101344216
      ],
      [
        "หม",
        -10.668732775661413
      ],
      [
        "ลูกค",
        -10.669049614638313
      ],
      [
        "าด",
        -10.670231657539457
      ],
      [
        "คั",
        -10.671888408822767
      ],
      [
        "ลบ",
        -10.678061846338284
      ],
      [
        "กันและ",
        -10.685381320698012
      ],
      [
        "สอดคล้อง",
        -10.687075352538915
      ],
      [
        "อบด้วย",
        -10.693852841373246
      ],
      [
        "เกีย",
        -10.69652077746983
      ],
      [
        "ิติ",
        -10.70295762234983
      ],
      [
        "อก",
        -10.707822216792046
      ],
      [
        "ราชินี",
        -10.725236512816812
      ],
      [
        "าร์ค",
        -10.733346161444386
      ],
      [
        "ัต",
        -10.73694411625123
      ],
      [
        "ลอย",
        -10.75201712266561
      ],
      [
        "อล",
        -10.758899718311593
      ],
      [
        "ดาวพ",
        -10.760080913580016
      ],
      [
        "มู",
        -10.76289939451551
      ],
      [
        "ตรา",
        -10.764274970856025
      ],
      [
        "่อ",
        -10.764849987763025
      ],
      [
        "าญ",
        -10.765117016161813
      ],
      [
        "ายน",
        -10.767706090901358
      ],
      [
        "ื้อ",
        -10.771024068693203
      ],
      [
        "ปกต",
        -10.772253990055965
      ],
      [
        "เอเ",
        -10.773695754152946
      ],
      [
        "ร้อ",
        -10.776706762245777
      ],
      [
        "เห",
        -10.781184654794814
      ],
      [
        "ุง",
        -10.794890132210696
      ],
      [
        "ตรั",
        -10.80323061781062
      ],
      [
        "เติ",
        -10.813118839828261
      ],
      [
        "ชอบ",
        -10.818145482531468
      ],
      [
        "เก็",
        -10.821705605646372
      ],
      [
        "ความก",
        -10.827565448644478
      ],
      [
        "เหมาะ",
        -10.828084006585243
      ],
      [
        "เปลี่ย",
        -10.831470994273126
      ],
      [
        "ริต",
        -10.834339340781149
      ],
      [
        "ภาษ",
        -10.839980505568171
      ],
      [
        "เรียนรู้",
        -10.857173892503907
      ],
      [
        "สภาว",
        -10.862202324230044
      ],
      [
        "ธา",
        -10.86283731499107
      ],
      [
        "เหล่า",
        -10.863189766951244
      ],
      [
        "ื่อง",
        -10.864868804207267
      ],
      [
        "บูรณาการ",
        -10.865232855812062
      ],
      [
        "ลน",
        -10.872150583874634
      ],
      [
        "ียม",
        -10.875859334370256
      ],
      [
        "ความพ",
        -10.8769901169147
      ],
      [
        "ัล",
        -10.881191035760526
      ],
      [
        "ดเลือ",
        -10.883193374526861
      ],
      [
        "ม็ก",
        -10.885205925219745
      ],
      [
        "ิวัต",
        -10.8904268436039
      ],
      [
        "การศึก",
        -10.89170477723278
      ],
      [
        "ขั้",
        -10.89216226036365
      ],
      [
        "เวีย",
        -10.892687246912
      ],
      [
        "ฎ",
        -10.89299718089121
      ],
      [
        "ตัน",
        -10.903463592181422
      ],
      [
        "ประเมินผล",
        -10.904752070047207
      ],
      [
        "พันธ์",
        -10.904952523688522
      ],
      [
        "คราะห์",
        -10.905381860694197
      ],
      [
        "ญญ",
        -10.90646236779406
      ],
      [
        "สัมพันธ",
        -10.90780963256343
      ],
      [
        "เวชศาสตร์",
        -10.9080158743745
      ],
      [
        "ศักดิ",
        -10.909682234483952
      ],
      [
        "ห้อ",
        -10.910110844355325
      ],
      [
        "แห่",
        -10.910912395221631
      ],
      [
        "สัตว",
        -10.91108664540857
      ],
      [
        "การท่องเที่ยว",
        -10.913592618082134
      ],
      [
        "ปลอดภัย",
        -10.91360511601306
      ],
      [
        "ฐ",
        -10.91449219910449
      ],
      [
        "ัญจ",
        -10.914693892166234
      ],
      [
        "ตะวัน",
        -10.917020574517673
      ],
      [
        "อผ",
        -10.917737182838636
      ],
      [
        "วิศวกร",
        -10.918100386717025
      ],
      [
        "ฑ",
        -10.91816797504616
      ],
      [
        "แพทย",
        -10.918217830676962
      ],
      [
        "ণ",
        -10.918308007048697
      ],
      [
        "ฌ",
        -10.918308007088635
      ],
      [
        "-",
        -10.918308007088646
      ],
      [
        "อินเทอร์เ",
        -10.918360435555496
      ],
      [
        "ัณฑ",
        -10.9184269798039
      ],
      [
        "สัมพั",
        -10.91885021208822
      ],
      [
        "พระบรมราช",
        -10.919176472436117
      ],
      [
        "พลเรือ",
        -10.919582947518428
      ],
      [
        "ประมวล",
        -10.919875710487956
      ],
      [
        "ราชพิธี",
        -10.92131025765079
      ],
      [
        "วยงา",
        -10.922378273204759
      ],
      [
        "ด็จ",
        -10.923537805471486
      ],
      [
        "ุลกา",
        -10.92389459584576
      ],
      [
        "แก้ไขปัญหา",
        -10.923947938814067
      ],
      [
        "เต็ม",
        -10.924079990498857
      ],
      [
        "ื่อนไ",
        -10.924639551332842
      ],
      [
        "ุ้ม",
        -10.925427693047256
      ],
      [
        "วัสด",
        -10.926679997589858
      ],
      [
        "เว็",
        -10.927231918297085
      ],
      [
        "สูตร",
        -10.928234749755568
      ],
      [
        "จิตร",
        -10.928990023808954
      ],
      [
        "พระราชเส",
        -10.929014057159229
      ],
      [
        "จักษ",
        -10.929961106532268
      ],
      [
        "นธร",
        -10.930583472578986
      ],
      [
        "ล้อม",
        -10.930711285867345
      ],
      [
        "พลัง",
        -10.93124752147741
      ],
      [
        "ข้าราช",
        -10.932226675213451
      ],
      [
        "็นตัว",
        -10.932654180239211
      ],
      [
        "สปอ",
        -10.933248801370613
      ],
      [
        "เมตรต่อ",
        -10.933263993981107
      ],
      [
        "่วย",
        -10.933614821653716
      ],
      [
        "ระวั",
        -10.935584185586567
      ],
      [
        "ทธ",
        -10.935857133286316
      ],
      [
        "ลงทุน",
        -10.936586848985426
      ],
      [
        "กุล",
        -10.936988218186489
      ],
      [
        "การระ",
        -10.93759790614937
      ],
      [
        "มาร์ก",
        -10.93815164000016
      ],
      [
        "ขนา",
        -10.939768459873484
      ],
      [
        "บสุข",
        -10.939905761669435
      ],
      [
        "าร์ทเ",
        -10.94145179213865
      ],
      [
        "หัวใจ",
        -10.94202603859742
      ],
      [
        "พันธ",
        -10.945878330189775
      ],
      [
        "นเวีย",
        -10.947988803144586
      ],
      [
        "ัตถ",
        -10.951263166629639
      ],
      [
        "สุข",
        -10.952564770556654
      ],
      [
        "หร",
        -10.955409891877412
      ],
      [
        "ถุน",
        -10.958953479864329
      ],
      [
        "แม่น",
        -10.963156771432661
      ],
      [
        "ถู",
        -10.964490098725173
      ],
      [
        "มีอ",
        -10.966380027086391
      ],
      [
        "ธิราช",
        -10.968160730431126
      ],
      [
        "ลมาร์",
        -10.968173761849915
      ],
      [
        "ีก",
        -10.971909207088238
      ],
      [
        "หลาก",
        -10.974697568693651
      ],
      [
        "วิทยาศาสตร์กา",
        -10.984047749082205
      ],
      [
        "กรุ",
        -10.98520710086317
      ],
      [
        "มนุษยช",
        -10.985892303033891
      ],
      [
        "รรดิ",
        -10.988226524512031
      ],
      [
        "ราชสม",
        -10.99008572008654
      ],
      [
        "ร็จ",
        -10.991823963714833
      ],
      [
        "ให้ความส",
        -10.992946429717604
      ],
      [
        "ค์ส",
        -10.993574490032499
      ],
      [
        "ช้อ",
        -10.994509360962248
      ],
      [
        "งหา",
        -10.996104257280983
      ],
      [
        "หั",
        -10.996844910601023
      ],
      [
        "แต",
        -10.996938749182037
      ],
      [
        "แร",
        -10.997010443857873
      ],
      [
        "ียง",
        -10.99729178090493
      ],
      [
        "โป",
        -10.999212575755958
      ],
      [
        "รัช",
        -11.000150906443661
      ],
      [
        "รือ",
        -11.005623471959106
      ],
      [
        "เรือน",
        -11.010979426160077
      ],
      [
        "็อก",
        -11.016668259252729
      ],
      [
        "ุธ",
        -11.018063625719101
      ],
      [
        "แล้",
        -11.019353020812275
      ],
      [
        "เครื่องราช",
        -11.02247451582079
      ],
      [
        "ปราก",
        -11.025403635918526
      ],
      [
        "ียบส",
        -11.027121269198954
      ],
      [
        "ซับ",
        -11.028553084046488
      ],
      [
        "คริส",
        -11.029533348752189
      ],
      [
        "ี่ยม",
        -11.030435538273213
      ],
      [
        "เวช",
        -11.038763318885929
      ],
      [
        "ชาร์",
        -11.040365905974344
      ],
      [
        "หกรรม",
        -11.044667854614671
      ],
      [
        "ิสต",
        -11.047800010304009
      ],
      [
        "ิล",
        -11.0496166660265
      ],
      [
        "ฮิ",
        -11.050604906747466
      ],
      [
        "งราย",
        -11.051732165040068
      ],
      [
        "แก๊ง",
        -11.05753973471764
      ],
      [
        "ยูเ",
        -11.059200862717528
      ],
      [
        "ต้อ",
        -11.059406594055286
      ],
      [
        "เทอร์",
        -11.065746382265175
      ],
      [
        "เพิ่",
        -11.067667530787565
      ],
      [
        "เม็",
        -11.073490144235224
      ],
      [
        "นั่",
        -11.076693578942407
      ],
      [
        "จ้า",
        -11.080267272650316
      ],
      [
        "แทร",
        -11.080373390311516
      ],
      [
        "ุทธ",
        -11.081063898777177
      ],
      [
        "รอ",
        -11.082132077421484
      ],
      [
        "ิเค",
        -11.087093597455413
      ],
      [
        "ูป",
        -11.089092563396111
      ],
      [
        "ราฟ",
        -11.08937594224557
      ],
      [
        "ก้า",
        -11.100794423591202
      ],
      [
        "้อม",
        -11.101886298719776
      ],
      [
        "การสอน",
        -11.105047370471368
      ],
      [
        "ารจัดการเรียนรู้",
        -11.110070221129675
      ],
      [
        "พาะ",
        -11.11398124924686
      ],
      [
        "ภู",
        -11.1146732937111
      ],
      [
        "ทฤษ",
        -11.115174121037775
      ],
      [
        "อม",
        -11.116853985103342
      ],
      [
        "ักกา",
        -11.120618894934198
      ],
      [
        "ยั่ง",
        -11.122936815560573
      ],
      [
        "ดูก",
        -11.129206343604217
      ],
      [
        "ล้า",
        -11.131014442741423
      ],
      [
        "กํา",
        -11.141109856795508
      ],
      [
        "สองห",
        -11.144993746828726
      ],
      [
        "บาล",
        -11.145255877781565
      ],
      [
        "มิเ",
        -11.145608658097693
      ],
      [
        "เหม",
        -11.150381150959523
      ],
      [
        "แจ",
        -11.150762218786523
      ],
      [
        "ศา",
        -11.154158910024563
      ],
      [
        "เธ",
        -11.163726815996036
      ],
      [
        "ก๊",
        -11.164735133677317
      ],
      [
        "ยเล",
        -11.168343684433509
      ],
      [
        "นล้าน",
        -11.173072300792436
      ],
      [
        "อาร",
        -11.177561550150951
      ],
      [
        "พระราชบั",
        -11.179379197865648
      ],
      [
        "เทศ",
        -11.180274175371263
      ],
      [
        "วร",
        -11.184062825490704
      ],
      [
        "ยกรรม",
        -11.186042182442106
      ],
      [
        "าซ",
        -11.190457288112182
      ],
      [
        "ู่",
        -11.197574382976388
      ],
      [
        "บางค",
        -11.20224194883809
      ],
      [
        "ดิเ",
        -11.203847023140472
      ],
      [
        "่งใ",
        -11.205003826550996
      ],
      [
        "ลาดก",
        -11.207057521932457
      ],
      [
        "เกิ",
        -11.207916641719173
      ],
      [
        "อสัง",
        -11.212859867700098
      ],
      [
        "้อ",
        -11.215530708354377
      ],
      [
        "ทําไ",
        -11.221743782734164
      ],
      [
        "็น",
        -11.232978654586832
      ],
      [
        "ขน",
        -11.234581216194076
      ],
      [
        "อ่า",
        -11.235638494678865
      ],
      [
        "บจ",
        -11.23707855974249
      ],
      [
        "ภั",
        -11.238030877308956
      ],
      [
        "ลิต",
        -11.238257603657061
      ],
      [
        "ชีวิ",
        -11.265688379407589
      ],
      [
        "การวิ",
        -11.265773843320051
      ],
      [
        "วาล",
        -11.26896929829352
      ],
      [
        "ยว",
        -11.270209879408846
      ],
      [
        "ไม",
        -11.274239832443316
      ],
      [
        "ธี",
        -11.274632807441753
      ],
      [
        "รษ",
        -11.287839032128863
      ],
      [
        "าตร",
        -11.292886554076247
      ],
      [
        "เลน",
        -11.294933734535709
      ],
      [
        "าติ",
        -11.30547913251833
      ],
      [
        "เมื่อไ",
        -11.30568745003399
      ],
      [
        "เสด",
        -11.308545509549038
      ],
      [
        "ื่อน",
        -11.3087220653258
      ],
      [
        "เด็",
        -11.311234208438957
      ],
      [
        "เวอ",
        -11.314834897031357
      ],
      [
        "พระราชว",
        -11.32331343264167
      ],
      [
        "กรร",
        -11.331489402868002
      ],
      [
        "ทรั",
        -11.334567223021882
      ],
      [
        "วงด",
        -11.341089732203148
      ],
      [
        "ปไ",
        -11.348148158351368
      ],
      [
        "ฤติก",
        -11.350743356379676
      ],
      [
        "เซ็นเ",
        -11.352387502786318
      ],
      [
        "กอ",
        -11.358886771135884
      ],
      [
        "ผู้ป",
        -11.361288300647868
      ],
      [
        "ยศ",
        -11.372560782284241
      ],
      [
        "รด",
        -11.38077032508054
      ],
      [
        "ยุต",
        -11.382050490151192
      ],
      [
        "เปี",
        -11.38365020783664
      ],
      [
        "มกัน",
        -11.388161105873088
      ],
      [
        "ต้า",
        -11.39857797692495
      ],
      [
        "ด้",
        -11.398935978141601
      ],
      [
        "นิวเ",
        -11.402023897498387
      ],
      [
        "เทอ",
        -11.408596663763149
      ],
      [
        "ิว",
        -11.408799104604718
      ],
      [
        "ิช",
        -11.408876847790777
      ],
      [
        "ช้า",
        -11.425224137412906
      ],
      [
        "นตร",
        -11.43966215840181
      ],
      [
        "วล",
        -11.444955929576661
      ],
      [
        "ันที",
        -11.445630624472072
      ],
      [
        "ราชส",
        -11.450908413642766
      ],
      [
        "ยี่",
        -11.451035219494079
      ],
      [
        "ห์",
        -11.456664968393108
      ],
      [
        "จําห",
        -11.462615840634289
      ],
      [
        "งงาน",
        -11.46501836928043
      ],
      [
        "กเห",
        -11.474339694841007
      ],
      [
        "วร์",
        -11.48509235556381
      ],
      [
        "ะเมิ",
        -11.497320957362748
      ],
      [
        "ุค",
        -11.499984485309602
      ],
      [
        "บัง",
        -11.503536870043499
      ],
      [
        "ผู้เข",
        -11.505930821068562
      ],
      [
        "สรี",
        -11.514709028426827
      ],
      [
        "มโน",
        -11.515533663010514
      ],
      [
        "ดุ",
        -11.525309666213726
      ],
      [
        "ลู",
        -11.526090275223773
      ],
      [
        "วิจ",
        -11.528276126295527
      ],
      [
        "ณ์",
        -11.5324288616209
      ],
      [
        "วสา",
        -11.546514755660056
      ],
      [
        "มุ",
        -11.547210381478159
      ],
      [
        "เทคโนโลยีส",
        -11.547333302430252
      ],
      [
        "คมน",
        -11.554525024728358
      ],
      [
        "แป",
        -11.561942321306388
      ],
      [
        "นที",
        -11.567518646254829
      ],
      [
        "ตี",
        -11.56794237780177
      ],
      [
        "ดดั",
        -11.581501254418463
      ],
      [
        "การลง",
        -11.585810443314998
      ],
      [
        "ตกรรม",
        -11.586785368989721
      ],
      [
        "เคม",
        -11.589931178423658
      ],
      [
        "จ์",
        -11.59343390247474
      ],
      [
        "การประช",
        -11.599332944527168
      ],
      [
        "ลือก",
        -11.599621371811061
      ],
      [
        "ดจํา",
        -11.602074275842957
      ],
      [
        "คําส",
        -11.604550657081258
      ],
      [
        "มเป",
        -11.605501331415752
      ],
      [
        "กพร",
        -11.605935736964678
      ],
      [
        "นตั",
        -11.611209637819483
      ],
      [
        "ฝา",
        -11.611392454406847
      ],
      [
        "คลี",
        -11.611849398112629
      ],
      [
        "ลีย",
        -11.619694576791737
      ],
      [
        "าศ",
        -11.62982307423507
      ],
      [
        "ยิ",
        -11.641975436209707
      ],
      [
        "อลล",
        -11.650063810277956
      ],
      [
        "ดเก",
        -11.665552845690222
      ],
      [
        "แกร",
        -11.667889374785041
      ],
      [
        "เชิงท",
        -11.672772253432342
      ],
      [
        "สาร์",
        -11.683527978756937
      ],
      [
        "ดินเ",
        -11.693521129168959
      ],
      [
        "ถน",
        -11.71634163784385
      ],
      [
        "ลลี",
        -11.721121807814836
      ],
      [
        "อดี",
        -11.722393323697682
      ],
      [
        "วอน",
        -11.728612744377232
      ],
      [
        "็ต",
        -11.74405170397785
      ],
      [
        "วิต",
        -11.745616281293119
      ],
      [
        "ิพา",
        -11.748853877933854
      ],
      [
        "แน่น",
        -11.753615960003499
      ],
      [
        "ต่อต",
        -11.760550417033123
      ],
      [
        "ตือ",
        -11.768922118426277
      ],
      [
        "ติก",
        -11.770090249208675
      ],
      [
        "มาต",
        -11.773845702272645
      ],
      [
        "นียว",
        -11.804413669043697
      ],
      [
        "ออร์",
        -11.808672859041163
      ],
      [
        "ผู้อ",
        -11.809726209445554
      ],
      [
        "ตริ",
        -11.816091665875735
      ],
      [
        "เหล",
        -11.823910467333906
      ],
      [
        "เชิ",
        -11.831268497390175
      ],
      [
        "ร์ซ",
        -11.832611402422883
      ],
      [
        "เสร",
        -11.83976948286729
      ],
      [
        "่าว",
        -11.846083546604175
      ],
      [
        "จอ",
        -11.852672920671516
      ],
      [
        "ยา",
        -11.862492236420813
      ],
      [
        "กต",
        -11.869128933279537
      ],
      [
        "ฟอ",
        -11.874050198305623
      ],
      [
        "สเต",
        -11.879668125747612
      ],
      [
        "ัม",
        -11.88261600996954
      ],
      [
        "โย",
        -11.8899376847134
      ],
      [
        "ศุ",
        -11.895682290262707
      ],
      [
        "ส่",
        -11.89919354344345
      ],
      [
        "ูน",
        -11.90713332355318
      ],
      [
        "ั่",
        -11.909383644617272
      ],
      [
        "เถ",
        -11.962650298005364
      ],
      [
        "าณ",
        -11.964567569402934
      ],
      [
        "การเทคโนโลยี",
        -11.968816726516978
      ],
      [
        "าช",
        -11.969949607269577
      ],
      [
        "งกรณ",
        -11.987075660437126
      ],
      [
        "ตุ",
        -11.98826969957134
      ],
      [
        "อลิ",
        -11.998756425541266
      ],
      [
        "การช",
        -12.006878798243854
      ],
      [
        "าร์ท",
        -12.007972091879088
      ],
      [
        "มีอิ",
        -12.020648494313527
      ],
      [
        "การข",
        -12.022963123453893
      ],
      [
        "งใ",
        -12.027035974099624
      ],
      [
        "เย",
        -12.031287733064756
      ],
      [
        "กภ",
        -12.044808847822898
      ],
      [
        "รว",
        -12.067849866933756
      ],
      [
        "ตติ",
        -12.073283376442904
      ],
      [
        "ิเล",
        -12.074411358170591
      ],
      [
        "เมิ",
        -12.086616139223468
      ],
      [
        "ท็",
        -12.105446507348654
      ],
      [
        "ธอ",
        -12.108050973305353
      ],
      [
        "ไพ",
        -12.122430924987691
      ],
      [
        "บี",
        -12.1391208031735
      ],
      [
        "โตม",
        -12.143388307216545
      ],
      [
        "ปแล",
        -12.143843328377177
      ],
      [
        "เภ",
        -12.144632415504196
      ],
      [
        "บบ",
        -12.149517293224624
      ],
      [
        "กต์",
        -12.176351149535769
      ],
      [
        "ุป",
        -12.189985621165125
      ],
      [
        "การเ",
        -12.199104241187824
      ],
      [
        "งตัว",
        -12.206482041044042
      ],
      [
        "ิษ",
        -12.20649808235561
      ],
      [
        "เลก",
        -12.249399592519692
      ],
      [
        "สตร",
        -12.251003888318799
      ],
      [
        "ที่จ",
        -12.271298553038694
      ],
      [
        "ล้",
        -12.271667024264467
      ],
      [
        "ิยม",
        -12.272252396317125
      ],
      [
        "ีบ",
        -12.27302983488302
      ],
      [
        "ทย",
        -12.274974749162537
      ],
      [
        "มิน",
        -12.285592700886118
      ],
      [
        "โอเ",
        -12.289712580256756
      ],
      [
        "ํ",
        -12.298820291777234
      ],
      [
        "ึ",
        -12.298920291777234
      ],
      [
        "ฒ",
        -12.299020291777234
      ],
      [
        "ฬ",
        -12.299120291777234
      ],
      [
        "ผู้เ",
        -12.299120291777234
      ]
    ],
    "byte_fallback": false
  }
}