{
  "version": "1.0",
  "truncation": null,
  "padding": null,
  "added_tokens": [
    {
      "id": 0,
      "content": "<unk>",
      "single_word": false,
      "lstrip": false,
      "rstrip": false,
      "normalized": false,
      "special": true
    }
  ],
  "normalizer": null,
  "pre_tokenizer": {
    "type": "Sequence",
    "pretokenizers": [
      {
        "type": "Punctuation",
        "behavior": "Isolated"
      }
    ]
  },
  "post_processor": null,
  "decoder": null,
  "model": {
    "type": "Unigram",
    "unk_id": 0,
    "vocab": [
      [
        "<unk>",
        0.0
      ],
      [
        "\n",
        -1.2937060857526852
      ],
      [
        "\r",
        -1.2937060857526852
      ],
      [
        "การ",
        -4.519660194957304
      ],
      [
        "ที่",
        -4.578709478222199
      ],
      [
        "และ",
        -4.737789297964794
      ],
      [
        "น",
        -4.86459430572911
      ],
      [
        "ใน",
        -4.902283486576445
      ],
      [
        "ของ",
        -4.981629463717216
      ],
      [
        "เป็น",
        -5.124261645828601
      ],
      [
        "มี",
        -5.336447117977913
      ],
      [
        "ศาสตร์",
        -5.444284614140133
      ],
      [
        "ก",
        -5.57305890607387
      ],
      [
        "ได้",
        -5.663325473191721
      ],
      [
        "ว่า",
        -5.694455098499574
      ],
      [
        "อ",
        -5.759771051592529
      ],
      [
        "ส",
        -5.826215224223153
      ],
      [
        "ง",
        -5.837291479443164
      ],
      [
        "อร์",
        -5.841088236415462
      ],
      [
        "ค",
        -5.856334122611888
      ],
      [
        "ด",
        -5.870416559454594
      ],
      [
        "ทาง",
        -5.893118057154884
      ],
      [
        "บ",
        -5.924589852856379
      ],
      [
        "์",
        -5.947096433347408
      ],
      [
        "ความ",
        -5.947966078335828
      ],
      [
        "เต",
        -5.975241726603081
      ],
      [
        "ดารา",
        -6.000548591508011
      ],
      [
        "จาก",
        -6.008403508529573
      ],
      [
        "คอมพิว",
        -6.034530677737164
      ],
      [
        "ๆ",
        -6.104599862125386
      ],
      [
        "ใช้",
        -6.156343926485828
      ],
      [
        "ดาว",
        -6.1660938642340115
      ],
      [
        "ซึ่ง",
        -6.179991102076645
      ],
      [
        "มา",
        -6.181600420089469
      ],
      [
        "โดย",
        -6.185602250622264
      ],
      [
        "แบบ",
        -6.201524444480611
      ],
      [
        "ถึง",
        -6.246195979907193
      ],
      [
        "จะ",
        -6.257182410527769
      ],
      [
        "ม",
        -6.257198042361512
      ],
      [
        "เมือง",
        -6.29232859088586
      ],
      [
        "ขึ้น",
        -6.350271388217983
      ],
      [
        "มาก",
        -6.3596904814288635
      ],
      [
        "ล",
        -6.365843136180506
      ],
      [
        "คณิต",
        -6.3673044899610645
      ],
      [
        "กับ",
        -6.390910916117148
      ],
      [
        "ต",
        -6.438313612429081
      ],
      [
        "ย",
        -6.474952690744732
      ],
      [
        "การศึกษา",
        -6.491992998310114
      ],
      [
        "ไป",
        -6.492234181979124
      ],
      [
        "รัฐ",
        -6.494821154861138
      ],
      [
        "ทฤษฎี",
        -6.495375764657787
      ],
      [
        "ว",
        -6.5018023355193
      ],
      [
        "เ",
        -6.5148862029767285
      ],
      [
        "หรือ",
        -6.535195160768829
      ],
      [
        "ไม่",
        -6.536625051871015
      ],
      [
        "ป",
        -6.53872778586029
      ],
      [
        "วิทยา",
        -6.542581540336245
      ],
      [
        "ี้",
        -6.54658928817866
      ],
      [
        "ร",
        -6.562833448249764
      ],
      [
        "แต่",
        -6.566181392392837
      ],
      [
        "ระบบ",
        -6.569442522970023
      ],
      [
        "อย่าง",
        -6.587023908742126
      ],
      [
        "ภูมิศาสตร์",
        -6.590426692571879
      ],
      [
        "พ",
        -6.60118455641161
      ],
      [
        "ต่าง",
        -6.603401553550142
      ],
      [
        "ข้อมูล",
        -6.6088831901046685
      ],
      [
        "า",
        -6.62655651034798
      ],
      [
        "จ",
        -6.627025133135713
      ],
      [
        "ท",
        -6.636564560484459
      ],
      [
        "สาม",
        -6.6493979562911285
      ],
      [
        "ด้วย",
        -6.667975601365396
      ],
      [
        "ศ",
        -6.678642660445082
      ],
      [
        " ",
        -6.700334694645389
      ],
      [
        "อยู่",
        -6.703796121338293
      ],
      [
        "ณ",
        -6.706460748527837
      ],
      [
        "เพื่อ",
        -6.711207079202194
      ],
      [
        "ั้น",
        -6.713078507002557
      ],
      [
        "พื้น",
        -6.724578070997766
      ],
      [
        "เชิง",
        -6.73466061517868
      ],
      [
        "ธรรม",
        -6.747308875552012
      ],
      [
        "ารถ",
        -6.750056146133379
      ],
      [
        "ก็",
        -6.758146865776461
      ],
      [
        "งาน",
        -6.7617147723751945
      ],
      [
        "กัน",
        -6.769477511185739
      ],
      [
        "เช่น",
        -6.775505958899658
      ],
      [
        "สาขา",
        -6.787612944505954
      ],
      [
        "ให้",
        -6.8143393686785005
      ],
      [
        "อง",
        -6.833630306754178
      ],
      [
        "รับ",
        -6.838334805185552
      ],
      [
        "เกิด",
        -6.8421392806403745
      ],
      [
        "รวม",
        -6.85617119825683
      ],
      [
        "นัก",
        -6.862875130885671
      ],
      [
        "ฐาน",
        -6.888644352134899
      ],
      [
        "ออก",
        -6.8886878750815335
      ],
      [
        "ตั้ง",
        -6.891676877067177
      ],
      [
        "รูป",
        -6.899426716534667
      ],
      [
        "ข้อ",
        -6.900643073536779
      ],
      [
        "ปี",
        -6.913120121508219
      ],
      [
        "จักร",
        -6.913361093046704
      ],
      [
        "ือ",
        -6.929271819214366
      ],
      [
        "ส่วน",
        -6.933000923202148
      ],
      [
        "มนุษย์",
        -6.943272384567153
      ],
      [
        "หนึ่ง",
        -6.957821530382504
      ],
      [
        "ใ",
        -6.967271337914054
      ],
      [
        "ชาติ",
        -6.972065740125663
      ],
      [
        "ห",
        -6.990642696542829
      ],
      [
        "โลก",
        -7.00725020272993
      ],
      [
        "วิทยาศาสตร์",
        -7.0121566591287365
      ],
      [
        "ถูก",
        -7.01280694079615
      ],
      [
        "ตัว",
        -7.04368099594738
      ],
      [
        "น์",
        -7.043831419658185
      ],
      [
        "ภาพ",
        -7.0480474139947695
      ],
      [
        "คำ",
        -7.086071551718059
      ],
      [
        "ภูมิ",
        -7.087120712411689
      ],
      [
        "สังคม",
        -7.091203138708621
      ],
      [
        "ภาษา",
        -7.092071885177269
      ],
      [
        "่",
        -7.099580608955745
      ],
      [
        "สร้าง",
        -7.108744873004064
      ],
      [
        "จำนวน",
        -7.1269860189016825
      ],
      [
        "สารสนเทศ",
        -7.127344968004381
      ],
      [
        "ำนว",
        -7.14044429631846
      ],
      [
        "ื่น",
        -7.146268521738346
      ],
      [
        "เกี่ยว",
        -7.154795146598052
      ],
      [
        "แรก",
        -7.164601196537953
      ],
      [
        "ผล",
        -7.18130558238437
      ],
      [
        "ระหว่าง",
        -7.183638691091428
      ],
      [
        "หมาย",
        -7.183954458240431
      ],
      [
        "เข้า",
        -7.190255661396554
      ],
      [
        "ต่อ",
        -7.195677010545648
      ],
      [
        "สุด",
        -7.206521748596857
      ],
      [
        "กลุ่ม",
        -7.211905701002014
      ],
      [
        "หม่",
        -7.216456153447733
      ],
      [
        "วิธี",
        -7.223274066316306
      ],
      [
        "เครื่อง",
        -7.224006858277214
      ],
      [
        "ญ",
        -7.260096693123632
      ],
      [
        "ใจ",
        -7.275215390898221
      ],
      [
        "เกี่ยวกั",
        -7.275313509773799
      ],
      [
        "ประเทศ",
        -7.285772224356961
      ],
      [
        "ภ",
        -7.3042404640028025
      ],
      [
        "เว็บ",
        -7.307544908494094
      ],
      [
        "ี",
        -7.318080144420959
      ],
      [
        "สังเกต",
        -7.329708784445613
      ],
      [
        "ดวง",
        -7.331496504137384
      ],
      [
        "สาร",
        -7.3316072455177075
      ],
      [
        "เคราะห์",
        -7.351309738668287
      ],
      [
        "ฤกษ",
        -7.353378389203496
      ],
      [
        "ชื่อ",
        -7.35539151735389
      ],
      [
        "ยัง",
        -7.365081643501798
      ],
      [
        "ภาค",
        -7.365282240524275
      ],
      [
        "คิด",
        -7.366223467835713
      ],
      [
        "การณ์",
        -7.3734410537159825
      ],
      [
        "ช่วง",
        -7.375784463218713
      ],
      [
        "ทำให้",
        -7.376278152239686
      ],
      [
        "ะ",
        -7.39145616127577
      ],
      [
        "มอง",
        -7.3919828784538595
      ],
      [
        "สำ",
        -7.41550524818015
      ],
      [
        "หลาย",
        -7.4264206872848515
      ],
      [
        "การค",
        -7.426887436246819
      ],
      [
        "ึง",
        -7.445664175008066
      ],
      [
        "ทิ",
        -7.447660377219027
      ],
      [
        "วัตถุ",
        -7.448860282113831
      ],
      [
        "สำคัญ",
        -7.459296684013539
      ],
      [
        "ทางการ",
        -7.463831895688563
      ],
      [
        "โปรแกรม",
        -7.474500959085301
      ],
      [
        "ช",
        -7.477411997223012
      ],
      [
        "พัน",
        -7.477725123170417
      ],
      [
        "สม",
        -7.479442446358554
      ],
      [
        "วิเคราะห์",
        -7.4897095844601616
      ],
      [
        "ปัจจ",
        -7.500760496876065
      ],
      [
        "สิ่ง",
        -7.50133034826838
      ],
      [
        "สูง",
        -7.50218676636312
      ],
      [
        "ไฟ",
        -7.502254160330914
      ],
      [
        "เรียก",
        -7.502337388334374
      ],
      [
        "ตาม",
        -7.509484044350874
      ],
      [
        "กระท",
        -7.509496051625138
      ],
      [
        "ศึกษา",
        -7.510673819298162
      ],
      [
        "ต์",
        -7.516714404971985
      ],
      [
        "แนว",
        -7.525884397059587
      ],
      [
        "วิศวกรรม",
        -7.527844875190471
      ],
      [
        "ุบั",
        -7.529664127051309
      ],
      [
        "บาง",
        -7.530772461506185
      ],
      [
        "ให",
        -7.534429983224262
      ],
      [
        "ด้าน",
        -7.556184982711805
      ],
      [
        "ไทย",
        -7.568870199791479
      ],
      [
        "ยุค",
        -7.580402266696707
      ],
      [
        "เริ่ม",
        -7.584370539968188
      ],
      [
        "แก่",
        -7.5845369472879565
      ],
      [
        "อาจ",
        -7.585392152942611
      ],
      [
        "จน",
        -7.602660461263708
      ],
      [
        "หลัก",
        -7.612936206788613
      ],
      [
        "ซอฟต์แวร์",
        -7.613604741616557
      ],
      [
        "สมัย",
        -7.613711238011756
      ],
      [
        "ผู้",
        -7.621257013697793
      ],
      [
        "กลาง",
        -7.621773195359691
      ],
      [
        "ทำ",
        -7.621848486364277
      ],
      [
        "ลักษณะ",
        -7.623643848769674
      ],
      [
        "เม",
        -7.635510852277703
      ],
      [
        "เห็น",
        -7.644100473840563
      ],
      [
        "ต้อง",
        -7.645367218720018
      ],
      [
        "ประกอบ",
        -7.651424386108201
      ],
      [
        "้",
        -7.65200262194217
      ],
      [
        "แ",
        -7.6593743330032
      ],
      [
        "เมื่อ",
        -7.669805568754018
      ],
      [
        "แผน",
        -7.6824577802635465
      ],
      [
        "จัด",
        -7.688645061400761
      ],
      [
        "ผ่า",
        -7.691460913057892
      ],
      [
        "บท",
        -7.696131898248346
      ],
      [
        "เอ",
        -7.701383501299814
      ],
      [
        "ซ",
        -7.701948222816911
      ],
      [
        "ถ",
        -7.706247435755534
      ],
      [
        "ฟ้า",
        -7.7076854887918
      ],
      [
        "ต้น",
        -7.710778046904144
      ],
      [
        "โ",
        -7.723060557224544
      ],
      [
        "เอก",
        -7.730858863747221
      ],
      [
        "การพัฒนา",
        -7.7333530282763085
      ],
      [
        "เรื่อง",
        -7.741051732349963
      ],
      [
        "เวลา",
        -7.742019000557635
      ],
      [
        "ล์",
        -7.742178885514711
      ],
      [
        "นี",
        -7.74648382740425
      ],
      [
        "รา",
        -7.748340059706084
      ],
      [
        "รู้",
        -7.754118758316833
      ],
      [
        "ู้",
        -7.763289720632049
      ],
      [
        "แล้ว",
        -7.775321428072355
      ],
      [
        "โครงสร้าง",
        -7.775349534375167
      ],
      [
        "กลาย",
        -7.777848852677156
      ],
      [
        "สัมพันธ์",
        -7.778494282517337
      ],
      [
        "บริ",
        -7.780980367687915
      ],
      [
        "ศูนย์",
        -7.798500024211847
      ],
      [
        "โต",
        -7.810222829952706
      ],
      [
        "นิยม",
        -7.8105820156854335
      ],
      [
        "แห่ง",
        -7.811077459097811
      ],
      [
        "สอง",
        -7.822038139169006
      ],
      [
        "ราช",
        -7.840884991016942
      ],
      [
        "จำ",
        -7.841552826704256
      ],
      [
        "ทั้ง",
        -7.842323059747692
      ],
      [
        "เยอรม",
        -7.847983424794144
      ],
      [
        "รังสี",
        -7.8480856135267345
      ],
      [
        "ขนาด",
        -7.8536274758923375
      ],
      [
        "ได้รับ",
        -7.855628925294722
      ],
      [
        "กาศ",
        -7.859279947485882
      ],
      [
        "ฝ",
        -7.861412207711817
      ],
      [
        "ก่อน",
        -7.884446106571783
      ],
      [
        "อัน",
        -7.890375232546016
      ],
      [
        "มัก",
        -7.894536051885077
      ],
      [
        "ย์",
        -7.8958964455257075
      ],
      [
        "แตก",
        -7.904862648331662
      ],
      [
        "แสดง",
        -7.915606216618595
      ],
      [
        "วัฒน",
        -7.926446069462534
      ],
      [
        "ำเนิ",
        -7.926593336900462
      ],
      [
        "ไซ",
        -7.928539078112688
      ],
      [
        "ห้อง",
        -7.928749328007904
      ],
      [
        "วิชา",
        -7.92917632551705
      ],
      [
        "ครั้ง",
        -7.931185740512442
      ],
      [
        "จุด",
        -7.9315024168527914
      ],
      [
        "ยุ",
        -7.943786463027481
      ],
      [
        "รี",
        -7.945124591166632
      ],
      [
        "วง",
        -7.9497075473505525
      ],
      [
        "สิ่งแวดล้อม",
        -7.968169082756577
      ],
      [
        "ประวัติ",
        -7.968211352139895
      ],
      [
        "ส์",
        -7.9693160443198785
      ],
      [
        "ท้อง",
        -7.970389644314167
      ],
      [
        "จริ",
        -7.989985000581916
      ],
      [
        "เขีย",
        -8.000561740717016
      ],
      [
        "ัน",
        -8.007450004457713
      ],
      [
        "จักรวาล",
        -8.01160378473737
      ],
      [
        "ดำเนิน",
        -8.011636200728049
      ],
      [
        "อาทิ",
        -8.012232318462637
      ],
      [
        "เปลี่ยน",
        -8.013370830501632
      ],
      [
        "ค้น",
        -8.014675235061619
      ],
      [
        "ความรู้",
        -8.016039521879511
      ],
      [
        "กระบวนการ",
        -8.016532287927022
      ],
      [
        "โร",
        -8.019836832059902
      ],
      [
        "ดู",
        -8.02478172455113
      ],
      [
        "เทคโนโลยี",
        -8.026007359984648
      ],
      [
        "ฟ",
        -8.026084860402612
      ],
      [
        "ู",
        -8.035962212909173
      ],
      [
        "หลัง",
        -8.053277864749667
      ],
      [
        "หน้า",
        -8.056920164004971
      ],
      [
        "โบราณ",
        -8.057044270490845
      ],
      [
        "กำหนด",
        -8.057044780418124
      ],
      [
        "ศตวรรษ",
        -8.057046514379095
      ],
      [
        "แบ่ง",
        -8.057283755493934
      ],
      [
        "ปรากฏการณ์",
        -8.057313851067608
      ],
      [
        "เลข",
        -8.05985030476415
      ],
      [
        "มัน",
        -8.088030078692338
      ],
      [
        "ละ",
        -8.093021559628152
      ],
      [
        "้ง",
        -8.094746776850922
      ],
      [
        "หา",
        -8.100535345108485
      ],
      [
        "ปรัชญา",
        -8.104663312230521
      ],
      [
        "เขา",
        -8.107735338878845
      ],
      [
        "ชั้น",
        -8.108040617822551
      ],
      [
        "ุก",
        -8.109246717467885
      ],
      [
        "ริ",
        -8.110174751170693
      ],
      [
        "ประสิทธิ",
        -8.110566535610776
      ],
      [
        "นำ",
        -8.114403520186723
      ],
      [
        "ิ",
        -8.124340200955533
      ],
      [
        "สมา",
        -8.127810251233011
      ],
      [
        "ำห",
        -8.130029587193567
      ],
      [
        "ปฏิ",
        -8.14472359146889
      ],
      [
        "รอบ",
        -8.14769870133027
      ],
      [
        "ชิ",
        -8.15087705782663
      ],
      [
        "ไอ",
        -8.152429308187738
      ],
      [
        "ก่อ",
        -8.15246561849189
      ],
      [
        "ปัญหา",
        -8.154575331334279
      ],
      [
        "แหล่ง",
        -8.154663393688995
      ],
      [
        "เครือข่าย",
        -8.154666974169904
      ],
      [
        "กล่าว",
        -8.154676516622814
      ],
      [
        "เนื่อง",
        -8.154723467680512
      ],
      [
        "ช่วย",
        -8.15478750489943
      ],
      [
        "เน้น",
        -8.154840590115443
      ],
      [
        "เหล่าน",
        -8.15540775861253
      ],
      [
        "สาขาวิชา",
        -8.155862995045068
      ],
      [
        "เล่น",
        -8.156822537643762
      ],
      [
        "เปิด",
        -8.15688291534818
      ],
      [
        "เล็ก",
        -8.15697082947133
      ],
      [
        "การเปลี่ยนแปลง",
        -8.15740585600283
      ],
      [
        "มุม",
        -8.157542699770286
      ],
      [
        "น้ำ",
        -8.160416397505404
      ],
      [
        "อีก",
        -8.162424279822167
      ],
      [
        "การใช้",
        -8.169782918741891
      ],
      [
        "มือ",
        -8.17218961951388
      ],
      [
        "พัฒนา",
        -8.173954379130496
      ],
      [
        "คล",
        -8.176177893585244
      ],
      [
        "ประเ",
        -8.177022164207536
      ],
      [
        "พิ",
        -8.18696251013916
      ],
      [
        "ร์",
        -8.194769389538802
      ],
      [
        "แบ",
        -8.198120193220362
      ],
      [
        "ิป",
        -8.203777408455679
      ],
      [
        "เฉพาะ",
        -8.205663842248786
      ],
      [
        "มวล",
        -8.206524341660536
      ],
      [
        "สมัคร",
        -8.207297908818592
      ],
      [
        "หมู่",
        -8.207299465340892
      ],
      [
        "เดิม",
        -8.207351909013685
      ],
      [
        "ระดับ",
        -8.207377464759357
      ],
      [
        "รุง",
        -8.208402196608116
      ],
      [
        "โทรท",
        -8.210596472630437
      ],
      [
        "พย์",
        -8.21087779467101
      ],
      [
        "สื่อ",
        -8.211095897796506
      ],
      [
        "นิค",
        -8.211901991112601
      ],
      [
        "จัดการ",
        -8.214016548979941
      ],
      [
        "การทำ",
        -8.22178905389277
      ],
      [
        "กล",
        -8.227132612981602
      ],
      [
        "เว",
        -8.232192494606073
      ],
      [
        "ไ",
        -8.239638362702102
      ],
      [
        "บอร์",
        -8.242637960361675
      ],
      [
        "เด",
        -8.253701624797298
      ],
      [
        "คื",
        -8.259851675762725
      ],
      [
        "พันธุ์",
        -8.26199668296435
      ],
      [
        "บน",
        -8.262390005052817
      ],
      [
        "สาธารณ",
        -8.262850464102586
      ],
      [
        "จักรวรรดิ",
        -8.262850498143305
      ],
      [
        "อำนาจ",
        -8.262853588669744
      ],
      [
        "กว้าง",
        -8.262865203065735
      ],
      [
        "จำกัด",
        -8.262915877829169
      ],
      [
        "ไร้",
        -8.263062826780118
      ],
      [
        "เพิ่ม",
        -8.263096556122871
      ],
      [
        "ลง",
        -8.263361897457926
      ],
      [
        "อ้าง",
        -8.265639512416076
      ],
      [
        "ข",
        -8.265995463934276
      ],
      [
        "วิว",
        -8.27206694945982
      ],
      [
        "โค",
        -8.283775042586353
      ],
      [
        "าชิ",
        -8.286359162704848
      ],
      [
        "ุ",
        -8.287828614765523
      ],
      [
        "ชนิ",
        -8.288932975102945
      ],
      [
        "เล",
        -8.306694839521729
      ],
      [
        "อย",
        -8.307220220047402
      ],
      [
        "เท่า",
        -8.309889275762796
      ],
      [
        "วัน",
        -8.31870905330135
      ],
      [
        "ไว",
        -8.321620189327442
      ],
      [
        "เพียง",
        -8.321679475148173
      ],
      [
        "หมวด",
        -8.321686666122964
      ],
      [
        "ระยะ",
        -8.321697035613962
      ],
      [
        "หน่วย",
        -8.321729442413844
      ],
      [
        "ประชากร",
        -8.321758589385599
      ],
      [
        "ตลอด",
        -8.321791608851662
      ],
      [
        "คุณ",
        -8.321874807910305
      ],
      [
        "เศรษฐกิจ",
        -8.321931250000091
      ],
      [
        "สู่",
        -8.32330798493815
      ],
      [
        "เทค",
        -8.323615733861914
      ],
      [
        "พี",
        -8.327203168911133
      ],
      [
        "ชา",
        -8.328311954083306
      ],
      [
        "ล้อง",
        -8.333495656107347
      ],
      [
        "ยภาพ",
        -8.334444316042372
      ],
      [
        "่าง",
        -8.359350148923125
      ],
      [
        "หน่",
        -8.361875209381708
      ],
      [
        "ัด",
        -8.369714354954912
      ],
      [
        "ซี",
        -8.369954867713135
      ],
      [
        "สิทธิ",
        -8.37725213343963
      ],
      [
        "องค์",
        -8.378155344574163
      ],
      [
        "เร",
        -8.381022381306767
      ],
      [
        "าร์",
        -8.382109894332496
      ],
      [
        "มุ่ง",
        -8.384199553101233
      ],
      [
        "เหตุ",
        -8.384236204396503
      ],
      [
        "ผิว",
        -8.384288657495489
      ],
      [
        "นำไป",
        -8.385281269868646
      ],
      [
        "ปฏิบัติ",
        -8.386031026105464
      ],
      [
        "ปริ",
        -8.388966019042948
      ],
      [
        "หลังจาก",
        -8.389752454751974
      ],
      [
        "บาย",
        -8.395313702243714
      ],
      [
        "เรข",
        -8.401138186855848
      ],
      [
        "ค้า",
        -8.411622567924557
      ],
      [
        "เชื่อ",
        -8.411970050001205
      ],
      [
        "อธิ",
        -8.41223829954501
      ],
      [
        "ติ",
        -8.413155546515902
      ],
      [
        "แย",
        -8.444178630750313
      ],
      [
        "กรรม",
        -8.446798231377496
      ],
      [
        "พลังงาน",
        -8.45088066493456
      ],
      [
        "รัฐบาล",
        -8.450884829419863
      ],
      [
        "อย่างไร",
        -8.451019691105046
      ],
      [
        "เป้า",
        -8.451040541584366
      ],
      [
        "คลื่น",
        -8.45175334154429
      ],
      [
        "ให้บริการ",
        -8.451816664144003
      ],
      [
        "ธรณี",
        -8.452278967497046
      ],
      [
        "กระจ",
        -8.452342328879391
      ],
      [
        "ชน",
        -8.453336959063538
      ],
      [
        "การวิจัย",
        -8.45413307412602
      ],
      [
        "่อย",
        -8.465699064966621
      ],
      [
        "สนอ",
        -8.46612553241675
      ],
      [
        "ย่า",
        -8.467368781562634
      ],
      [
        "บริการ",
        -8.468501006460082
      ],
      [
        "เซ",
        -8.480721771100345
      ],
      [
        "กรี",
        -8.480813337565456
      ],
      [
        "ติด",
        -8.487113562409919
      ],
      [
        "นาม",
        -8.488893650291494
      ],
      [
        "นับ",
        -8.490839194662636
      ],
      [
        "สัญ",
        -8.499535937269016
      ],
      [
        "พลา",
        -8.50572888031748
      ],
      [
        "สู",
        -8.511978061980859
      ],
      [
        "งค์",
        -8.518434892505638
      ],
      [
        "ฤษ",
        -8.518588232730972
      ],
      [
        "แก๊",
        -8.519637894256928
      ],
      [
        "ทั่วไป",
        -8.520581018724682
      ],
      [
        "ร่วมกั",
        -8.521693369550825
      ],
      [
        "โน้ม",
        -8.522295864706951
      ],
      [
        "ตรรก",
        -8.522300984313617
      ],
      [
        "ัฒนาการ",
        -8.52263801104025
      ],
      [
        "เก็บ",
        -8.522749054326624
      ],
      [
        "ุ่น",
        -8.5238971322865
      ],
      [
        "น้อย",
        -8.523918334503032
      ],
      [
        "อุป",
        -8.523986415201541
      ],
      [
        "าม",
        -8.5250847694012
      ],
      [
        "เค",
        -8.525143310711032
      ],
      [
        "กฎหมาย",
        -8.525347793292962
      ],
      [
        "ยิ่ง",
        -8.52594716006194
      ],
      [
        "ตอบ",
        -8.526053023631652
      ],
      [
        "ตัวอย่าง",
        -8.527327011467708
      ],
      [
        "ส่ง",
        -8.528851957970648
      ],
      [
        "สุ",
        -8.53375953653493
      ],
      [
        "ตรี",
        -8.53607315364603
      ],
      [
        "ั่ง",
        -8.53849918408239
      ],
      [
        "ำ",
        -8.540911987982128
      ],
      [
        "มิ",
        -8.541333051135824
      ],
      [
        "ก่อตั",
        -8.553781286258548
      ],
      [
        "ัติ",
        -8.556361891941357
      ],
      [
        "นาย",
        -8.560432833813707
      ],
      [
        "เบ",
        -8.569627021925161
      ],
      [
        "ประ",
        -8.575271143154543
      ],
      [
        "เลีย",
        -8.576593902197027
      ],
      [
        "ำแ",
        -8.580558533562938
      ],
      [
        "แปล",
        -8.59590532153759
      ],
      [
        "ลักษณ",
        -8.597585027098834
      ],
      [
        "ล็ก",
        -8.597856552060607
      ],
      [
        "เหนือ",
        -8.599032950386306
      ],
      [
        "อัลกอริทึม",
        -8.599192289114956
      ],
      [
        "ซับซ้อน",
        -8.599192291159639
      ],
      [
        "กีฬา",
        -8.599199693801634
      ],
      [
        "ข่าว",
        -8.599326519320751
      ],
      [
        "องค์กร",
        -8.599444477279649
      ],
      [
        "ระบุ",
        -8.599452467546921
      ],
      [
        "เกษตร",
        -8.599555027063522
      ],
      [
        "ครอบค",
        -8.599752814694869
      ],
      [
        "เสีย",
        -8.600781606683483
      ],
      [
        "ประยุกต์ใช้",
        -8.600966396890255
      ],
      [
        "ไกล",
        -8.608882208369275
      ],
      [
        "นัย",
        -8.609094713529666
      ],
      [
        "นอก",
        -8.60926624835836
      ],
      [
        "ภายใน",
        -8.611513403663286
      ],
      [
        "บุค",
        -8.611553488296568
      ],
      [
        "เป็นการ",
        -8.612038821249522
      ],
      [
        "แล",
        -8.618334598825781
      ],
      [
        "อว",
        -8.620443796166757
      ],
      [
        "พระราช",
        -8.62104343903187
      ],
      [
        "าศั",
        -8.627130962218306
      ],
      [
        "กาล",
        -8.628794893780034
      ],
      [
        "เปอร์",
        -8.634875990046785
      ],
      [
        "ต้",
        -8.643180036305075
      ],
      [
        "ลิ",
        -8.647694082822644
      ],
      [
        "วิ",
        -8.65619646628965
      ],
      [
        "ราก",
        -8.657617452203944
      ],
      [
        "เดียวกั",
        -8.665112504568562
      ],
      [
        "ดี",
        -8.668619171709803
      ],
      [
        "ทั",
        -8.670952355227369
      ],
      [
        "กระบวน",
        -8.67293017446717
      ],
      [
        "ด์",
        -8.6766155817946
      ],
      [
        "ฮ",
        -8.679354055344216
      ],
      [
        "ประชา",
        -8.67968296403554
      ],
      [
        "ว่าง",
        -8.680329262941775
      ],
      [
        "ฆ",
        -8.682525622448395
      ],
      [
        "มหาวิทยาลัย",
        -8.68252562307623
      ],
      [
        "ฟิสิกส์",
        -8.682525859162164
      ],
      [
        "สถิติ",
        -8.682526184251447
      ],
      [
        "ดิจิทัล",
        -8.682534770386972
      ],
      [
        "ริยะ",
        -8.68261636625947
      ],
      [
        "แกนกลาง",
        -8.682674745351177
      ],
      [
        "อายุ",
        -8.682972679492584
      ],
      [
        "พล",
        -8.684282888530372
      ],
      [
        "ลุม",
        -8.68443244226307
      ],
      [
        "ในขณะ",
        -8.68520949227775
      ],
      [
        "แสง",
        -8.685380702602881
      ],
      [
        "โดยเฉพาะ",
        -8.68553529662934
      ],
      [
        "ทั้งห",
        -8.68567930119895
      ],
      [
        "การประมวลผล",
        -8.686740005685085
      ],
      [
        "ผู้ใช้",
        -8.687735354441614
      ],
      [
        "ใด",
        -8.689181904837202
      ],
      [
        "ถือ",
        -8.689698687299886
      ],
      [
        "ย่อ",
        -8.69389649428315
      ],
      [
        "มาณ",
        -8.694587340275477
      ],
      [
        "นิ",
        -8.698314400185655
      ],
      [
        "การปฏิ",
        -8.69838974805164
      ],
      [
        "พอ",
        -8.700540185065488
      ],
      [
        "อา",
        -8.71825416199103
      ],
      [
        "กิจ",
        -8.721474602525886
      ],
      [
        "าย",
        -8.729904254146449
      ],
      [
        "การปก",
        -8.73181567393128
      ],
      [
        "นา",
        -8.73701730275105
      ],
      [
        "รศ",
        -8.73988198478813
      ],
      [
        "คน",
        -8.741862230438224
      ],
      [
        "ราย",
        -8.742512282705428
      ],
      [
        "้นห",
        -8.75947035164361
      ],
      [
        "จี",
        -8.759882822088873
      ],
      [
        "ลับ",
        -8.760719382957726
      ],
      [
        "แผ่",
        -8.76228851677375
      ],
      [
        "รณ์",
        -8.764919845329153
      ],
      [
        "เป็นที่",
        -8.765233783084042
      ],
      [
        "เพล",
        -8.767707656148614
      ],
      [
        "หลากหลาย",
        -8.771067377701607
      ],
      [
        "บัติ",
        -8.77120540802203
      ],
      [
        "ประยุกต์",
        -8.771327244399677
      ],
      [
        "ดา",
        -8.772604328893573
      ],
      [
        "ประดิษฐ์",
        -8.773413121948956
      ],
      [
        "เคลื่อน",
        -8.773452784667015
      ],
      [
        "วรรษ",
        -8.773490606769023
      ],
      [
        "คาดการณ์",
        -8.77349922216407
      ],
      [
        "ประโยชน์",
        -8.773500513115259
      ],
      [
        "ถ่วง",
        -8.773595488245082
      ],
      [
        "เส้น",
        -8.773628546597307
      ],
      [
        "ประมาณ",
        -8.77367757850965
      ],
      [
        "กระจาย",
        -8.773858002059805
      ],
      [
        "วงศ์",
        -8.773859452672333
      ],
      [
        "เติล",
        -8.774051344881201
      ],
      [
        "ปิด",
        -8.774257951864056
      ],
      [
        "กรณี",
        -8.77444586890409
      ],
      [
        "ประส",
        -8.775043697997681
      ],
      [
        "เขต",
        -8.775620749353877
      ],
      [
        "โดยทั่วไป",
        -8.77603314848442
      ],
      [
        "เงิน",
        -8.77661054938229
      ],
      [
        "วัติ",
        -8.778306141996984
      ],
      [
        "แรง",
        -8.778931027973684
      ],
      [
        "มหา",
        -8.782832396843489
      ],
      [
        "ัส",
        -8.78655813920025
      ],
      [
        "สิน",
        -8.792060389572576
      ],
      [
        "แค",
        -8.794218844118522
      ],
      [
        "สภาพ",
        -8.79836653871874
      ],
      [
        "ฮาร์",
        -8.803038481255026
      ],
      [
        "แอ",
        -8.8107915425718
      ],
      [
        "จำเป็น",
        -8.82575021957605
      ],
      [
        "รอง",
        -8.82590758579951
      ],
      [
        "เส",
        -8.827052146386077
      ],
      [
        "ที",
        -8.831375287724809
      ],
      [
        "ดิน",
        -8.835004245609756
      ],
      [
        "โด",
        -8.842093195836364
      ],
      [
        "ทุก",
        -8.846198420868433
      ],
      [
        "ิง",
        -8.8540103170182
      ],
      [
        "ชีว",
        -8.856599516114766
      ],
      [
        "เก",
        -8.856930207922588
      ],
      [
        "พระ",
        -8.861884116644486
      ],
      [
        "แม่",
        -8.862531133624026
      ],
      [
        "ภายใ",
        -8.864007319034707
      ],
      [
        "โอ",
        -8.870160884400725
      ],
      [
        "ั้ง",
        -8.871156294657906
      ],
      [
        "แม้",
        -8.871740055843857
      ],
      [
        "เผ",
        -8.871843799549426
      ],
      [
        "ปรากฏ",
        -8.872826587689707
      ],
      [
        "สถาบัน",
        -8.873435164916625
      ],
      [
        "แพร่",
        -8.873442917544725
      ],
      [
        "จันทร",
        -8.873445552795799
      ],
      [
        "ปัญญาประดิษฐ์",
        -8.873458574829119
      ],
      [
        "แวร์",
        -8.873541194652255
      ],
      [
        "ผิด",
        -8.874133986305555
      ],
      [
        "รหัส",
        -8.874152501839148
      ],
      [
        "บรรยา",
        -8.874360823862379
      ],
      [
        "แขน",
        -8.875494386587112
      ],
      [
        "ริกา",
        -8.875730424303772
      ],
      [
        "สลาย",
        -8.877504948796737
      ],
      [
        "ียน",
        -8.877581553193352
      ],
      [
        "เคมี",
        -8.878260959663137
      ],
      [
        "คอม",
        -8.880112153495054
      ],
      [
        "คม",
        -8.883335385119668
      ],
      [
        "โล",
        -8.884499597174901
      ],
      [
        "แทน",
        -8.88493357572463
      ],
      [
        "หาก",
        -8.890575102475555
      ],
      [
        "เป็นต้น",
        -8.890609495833015
      ],
      [
        "่าย",
        -8.901987906833737
      ],
      [
        "ทศ",
        -8.903341328830077
      ],
      [
        "ยาม",
        -8.905254588588196
      ],
      [
        "ระ",
        -8.911779005457547
      ],
      [
        "มด",
        -8.91320399135467
      ],
      [
        "อิ",
        -8.914790265940656
      ],
      [
        "โน",
        -8.921690217552392
      ],
      [
        "ิกส์",
        -8.93378134303217
      ],
      [
        "ับ",
        -8.939959171578524
      ],
      [
        "่าน",
        -8.941799075122585
      ],
      [
        "ิก",
        -8.948502302539874
      ],
      [
        "ค่า",
        -8.959855832464239
      ],
      [
        "ถา",
        -8.963370693780192
      ],
      [
        "ธ",
        -8.963833629395394
      ],
      [
        "มีความ",
        -8.968508692386305
      ],
      [
        "ผลกระทบ",
        -8.97168745127486
      ],
      [
        "รักษา",
        -8.97332291857513
      ],
      [
        "กา",
        -8.977147658740677
      ],
      [
        "ภาย",
        -8.980712830080815
      ],
      [
        "รวจ",
        -8.982726125240099
      ],
      [
        "อัง",
        -8.9835948466527
      ],
      [
        "พิจารณา",
        -8.984543848959497
      ],
      [
        "สนับสนุน",
        -8.984545824477994
      ],
      [
        "ลำดับ",
        -8.984547189071238
      ],
      [
        "ระเบียบ",
        -8.984547825477756
      ],
      [
        "ขั้นตอน",
        -8.98457942308939
      ],
      [
        "เหลือ",
        -8.984585641015101
      ],
      [
        "ร่วม",
        -8.985445776479558
      ],
      [
        "อากาศ",
        -8.985745781394797
      ],
      [
        "คริสต์",
        -8.987424164338188
      ],
      [
        "ทรง",
        -8.987914387277591
      ],
      [
        "เลือก",
        -8.987940735149337
      ],
      [
        "ซู",
        -8.988930107447088
      ],
      [
        "สอบ",
        -8.989094805838059
      ],
      [
        "มื",
        -8.989668438186964
      ],
      [
        "ทรัพยากร",
        -8.989796644961586
      ],
      [
        "พวก",
        -8.990085109637619
      ],
      [
        "หัว",
        -8.990275839191659
      ],
      [
        "นอกจากน",
        -8.990442145247918
      ],
      [
        "ยาว",
        -8.990613763320074
      ],
      [
        "ขัด",
        -8.9915063023905
      ],
      [
        "ทรา",
        -8.993765753025968
      ],
      [
        "ข้าม",
        -8.994273884847349
      ],
      [
        "แนวทาง",
        -8.994397997008171
      ],
      [
        "างวั",
        -9.003363112453716
      ],
      [
        "ตัวเ",
        -9.003862402848124
      ],
      [
        "เซีย",
        -9.008750102888273
      ],
      [
        "สัง",
        -9.012382784185732
      ],
      [
        "ช้าง",
        -9.012697646067206
      ],
      [
        "เฟ",
        -9.013315737596335
      ],
      [
        "สา",
        -9.013605792220748
      ],
      [
        "รัส",
        -9.018383612095636
      ],
      [
        "ูญ",
        -9.026127649253604
      ],
      [
        "เป็นหนึ่ง",
        -9.027470980107791
      ],
      [
        "าร์ด",
        -9.031984632761986
      ],
      [
        "มาย",
        -9.036470745096143
      ],
      [
        "วิทย",
        -9.03894357405676
      ],
      [
        "เน",
        -9.052448618157726
      ],
      [
        "คร",
        -9.055515417279334
      ],
      [
        "้า",
        -9.055996868314317
      ],
      [
        "การค้า",
        -9.056943745553916
      ],
      [
        "่า",
        -9.069149176998172
      ],
      [
        "สี่",
        -9.072596132158301
      ],
      [
        "ชีวิต",
        -9.074014375525884
      ],
      [
        "ุม",
        -9.080212231992327
      ],
      [
        "าร",
        -9.083827395374042
      ],
      [
        "ห้าง",
        -9.088971534579416
      ],
      [
        "ผ",
        -9.090429393567673
      ],
      [
        "ภูมิศาสตร์กา",
        -9.098299913707578
      ],
      [
        "เทีย",
        -9.103246575430266
      ],
      [
        "สถาปัตยกรรม",
        -9.109545824481218
      ],
      [
        "ประเด็น",
        -9.109546355345017
      ],
      [
        "ธาตุ",
        -9.10954699390555
      ],
      [
        "การเข้ารหัส",
        -9.109553456094362
      ],
      [
        "มีส่วนร่วม",
        -9.109573626624002
      ],
      [
        "ทุน",
        -9.10958998449297
      ],
      [
        "คล้าย",
        -9.10961401544165
      ],
      [
        "ขยาย",
        -9.109877306723485
      ],
      [
        "ตรวจสอบ",
        -9.10994608465734
      ],
      [
        "ฝ่าย",
        -9.1099988047493
      ],
      [
        "สหภาพ",
        -9.110125751528535
      ],
      [
        "ยืน",
        -9.110261896174796
      ],
      [
        "เร็",
        -9.110635669185086
      ],
      [
        "ความหนาแน่น",
        -9.111274544816734
      ],
      [
        "คุณภาพ",
        -9.111522095615918
      ],
      [
        "หลุม",
        -9.111818623106513
      ],
      [
        "นำมา",
        -9.112255614304239
      ],
      [
        "ยอม",
        -9.112831335681822
      ],
      [
        "สถานที่",
        -9.116376264783497
      ],
      [
        "แยก",
        -9.11770316319221
      ],
      [
        "ือก",
        -9.120303602411308
      ],
      [
        "ักษ์",
        -9.130041856136307
      ],
      [
        "เกม",
        -9.131406630798962
      ],
      [
        "การจัด",
        -9.132964591275616
      ],
      [
        "ตรง",
        -9.135024899975283
      ],
      [
        "ัศ",
        -9.137206160003153
      ],
      [
        "อนไ",
        -9.139892884448269
      ],
      [
        "ซิ",
        -9.14045657222896
      ],
      [
        "แฟ",
        -9.142302690983676
      ],
      [
        "เพ",
        -9.143055961309592
      ],
      [
        "เช",
        -9.144215243478863
      ],
      [
        "คง",
        -9.15089425086555
      ],
      [
        "ิน",
        -9.153104469621505
      ],
      [
        "วอร์",
        -9.154212580583449
      ],
      [
        "พยา",
        -9.15495144351651
      ],
      [
        "พร้อมกั",
        -9.155047249468476
      ],
      [
        "ิ่น",
        -9.160138882036096
      ],
      [
        "ลา",
        -9.165366400761277
      ],
      [
        "ไต",
        -9.166066428792565
      ],
      [
        "เอา",
        -9.180173884051648
      ],
      [
        "ะท",
        -9.180209870149831
      ],
      [
        "สรรค์",
        -9.18395414836646
      ],
      [
        "สห",
        -9.188298707428638
      ],
      [
        "ฟิ",
        -9.193479859246766
      ],
      [
        "กคร",
        -9.19363374785137
      ],
      [
        "สั่ง",
        -9.195553420035628
      ],
      [
        "บิ",
        -9.202783568884836
      ],
      [
        "เฉล",
        -9.2029120627571
      ],
      [
        "การปรับ",
        -9.20328700935305
      ],
      [
        "นาน",
        -9.203346695912868
      ],
      [
        "เท",
        -9.204539945533366
      ],
      [
        "เป",
        -9.212381179209668
      ],
      [
        "ควร",
        -9.217336037901633
      ],
      [
        "เรียน",
        -9.225904463685907
      ],
      [
        "การเรียนรู้",
        -9.226455101875157
      ],
      [
        "ฉ",
        -9.230810559106578
      ],
      [
        "าน",
        -9.230872067539599
      ],
      [
        "ดำ",
        -9.234733799320715
      ],
      [
        "ตำ",
        -9.235756952930588
      ],
      [
        "จัก",
        -9.235944505350908
      ],
      [
        "อี",
        -9.240287534667132
      ],
      [
        "่น",
        -9.241989623080729
      ],
      [
        "หรั",
        -9.248383150062867
      ],
      [
        "คริสต",
        -9.249102942670516
      ],
      [
        "เดีย",
        -9.249597492062893
      ],
      [
        "้อน",
        -9.249643253231504
      ],
      [
        "จิต",
        -9.250137372334308
      ],
      [
        "คู่",
        -9.250387380982792
      ],
      [
        "เมตร",
        -9.252151336373535
      ],
      [
        "สงคราม",
        -9.252402310661186
      ],
      [
        "โมเลกุล",
        -9.252402971801558
      ],
      [
        "กัมมันต",
        -9.252403116082435
      ],
      [
        "บันทึก",
        -9.252403165222303
      ],
      [
        "ความร่วมมือ",
        -9.252403732791912
      ],
      [
        "ความปลอดภัย",
        -9.252609960545561
      ],
      [
        "ไซเบอร์",
        -9.252644590962376
      ],
      [
        "คณะ",
        -9.252712179072294
      ],
      [
        "เชื่อมต่อ",
        -9.25271422072641
      ],
      [
        "เก่า",
        -9.252888813114975
      ],
      [
        "นทนา",
        -9.2530512990165
      ],
      [
        "เติบ",
        -9.253570185480198
      ],
      [
        "ส่งผล",
        -9.253583312719849
      ],
      [
        "ก่อนหน้า",
        -9.253613612858423
      ],
      [
        "ลึก",
        -9.25443516504496
      ],
      [
        "ระบบสุ",
        -9.254676058580856
      ],
      [
        "เชิงกล",
        -9.255935855009305
      ],
      [
        "ดังน",
        -9.256749300225486
      ],
      [
        "สิ้น",
        -9.256782018037233
      ],
      [
        "อัต",
        -9.256864700471118
      ],
      [
        "ล้าน",
        -9.257778807550375
      ],
      [
        "ทุ",
        -9.258847986711805
      ],
      [
        "ค่อย",
        -9.26099619039549
      ],
      [
        "กลับ",
        -9.261817343236924
      ],
      [
        "จุ",
        -9.262561066864365
      ],
      [
        "ดูด",
        -9.264725259916329
      ],
      [
        "ปรับ",
        -9.265769906528975
      ],
      [
        "้อง",
        -9.268358769688643
      ],
      [
        "ษั",
        -9.273340763781656
      ],
      [
        "ม่เห",
        -9.273661408838649
      ],
      [
        "ดึง",
        -9.274920479471746
      ],
      [
        "วก",
        -9.276082794126648
      ],
      [
        "ตอน",
        -9.277517888595678
      ],
      [
        "องค์การ",
        -9.277557833947974
      ],
      [
        "ตน",
        -9.281628188810934
      ],
      [
        "เดียว",
        -9.287340103596382
      ],
      [
        "พา",
        -9.290841697515829
      ],
      [
        "ผู้ค",
        -9.293079867222122
      ],
      [
        "ลาย",
        -9.293108183983882
      ],
      [
        "ธิป",
        -9.296286516052447
      ],
      [
        "ัง",
        -9.300824471934916
      ],
      [
        "ิสเต",
        -9.307702574928294
      ],
      [
        "ส่วนใ",
        -9.30973517020546
      ],
      [
        "ังก",
        -9.318471792595467
      ],
      [
        "้นพ",
        -9.321885965161853
      ],
      [
        "ิร์",
        -9.32403556076268
      ],
      [
        "ิม",
        -9.332070866102194
      ],
      [
        "การเข",
        -9.343003074161556
      ],
      [
        "บรร",
        -9.345594251318042
      ],
      [
        "โม",
        -9.346098983809684
      ],
      [
        "ความสำคัญ",
        -9.346746416321471
      ],
      [
        "สเป",
        -9.348734165715086
      ],
      [
        "ลี",
        -9.349281251553412
      ],
      [
        "ัก",
        -9.35459749182209
      ],
      [
        "บำ",
        -9.363384916552455
      ],
      [
        "ตา",
        -9.365297563473284
      ],
      [
        "ดับ",
        -9.366270647496968
      ],
      [
        "้าว",
        -9.369886970823712
      ],
      [
        "วา",
        -9.375881658610016
      ],
      [
        "คาร",
        -9.376120546508849
      ],
      [
        "บั",
        -9.385892769817058
      ],
      [
        "ทิศ",
        -9.388467236685127
      ],
      [
        "าท",
        -9.391986275695574
      ],
      [
        "จา",
        -9.398078382405217
      ],
      [
        "บาบ",
        -9.402056799079089
      ],
      [
        "ัญญ",
        -9.403640213691222
      ],
      [
        "ตรวจ",
        -9.405255208972156
      ],
      [
        "สถาน",
        -9.409933815744623
      ],
      [
        "เปลี่ยนแปลง",
        -9.410688904540402
      ],
      [
        "รร",
        -9.411350146376957
      ],
      [
        "ยนต",
        -9.412338878594635
      ],
      [
        "ธิ",
        -9.412834882158126
      ],
      [
        "ขณะ",
        -9.413515722674585
      ],
      [
        "ิด",
        -9.414179561344643
      ],
      [
        "หนาแน่น",
        -9.416720093986514
      ],
      [
        "สภา",
        -9.416740535477153
      ],
      [
        "รียบ",
        -9.417363410653557
      ],
      [
        "อุตสาหกรรม",
        -9.419069635343948
      ],
      [
        "การวางแผน",
        -9.41907146073626
      ],
      [
        "กระดาน",
        -9.419072106255127
      ],
      [
        "นิเวศ",
        -9.419074248078957
      ],
      [
        "ชุมชน",
        -9.419079053852624
      ],
      [
        "เจาะ",
        -9.419095111059503
      ],
      [
        "ตัดสิน",
        -9.419096027050895
      ],
      [
        "อาณา",
        -9.419105459710524
      ],
      [
        "หลักสูตร",
        -9.41911905932535
      ],
      [
        "อุดม",
        -9.41912840211156
      ],
      [
        "เศษ",
        -9.419134544445498
      ],
      [
        "ประสาท",
        -9.419199089656408
      ],
      [
        "อดีต",
        -9.419416143264232
      ],
      [
        "สัญญา",
        -9.419425255301965
      ],
      [
        "นอกเหนือ",
        -9.419448107454215
      ],
      [
        "เชื้อ",
        -9.419538066024966
      ],
      [
        "ภาพถ่าย",
        -9.419805870451794
      ],
      [
        "น่าจะ",
        -9.419964341353243
      ],
      [
        "พูด",
        -9.420014480514151
      ],
      [
        "ประกาศ",
        -9.420116384345206
      ],
      [
        "หนัง",
        -9.420278518331205
      ],
      [
        "บัตร",
        -9.420519575793469
      ],
      [
        "บอล",
        -9.421197724019198
      ],
      [
        "ไฮ",
        -9.421582477591695
      ],
      [
        "สหพันธ",
        -9.421746219618027
      ],
      [
        "โยง",
        -9.422168732062715
      ],
      [
        "ควบค",
        -9.422931926008173
      ],
      [
        "สะด",
        -9.422958167611275
      ],
      [
        "ความหลากหลาย",
        -9.423650238688733
      ],
      [
        "ร้าน",
        -9.423835983190834
      ],
      [
        "ชัด",
        -9.423846619907177
      ],
      [
        "ิโล",
        -9.42410209597356
      ],
      [
        "โฟ",
        -9.425389357117794
      ],
      [
        "ประชาช",
        -9.425525491956268
      ],
      [
        "สำนัก",
        -9.426388765276437
      ],
      [
        "ทัล",
        -9.427241675162026
      ],
      [
        "ตย",
        -9.427663683952858
      ],
      [
        "โซ",
        -9.428733570427537
      ],
      [
        "รวด",
        -9.429586802185732
      ],
      [
        "สิก",
        -9.439767595302644
      ],
      [
        "เวิร",
        -9.440268840969138
      ],
      [
        "อิน",
        -9.441156421721699
      ],
      [
        "แผ่น",
        -9.443956095701736
      ],
      [
        "ทั้งส",
        -9.44607565451885
      ],
      [
        "ความเป็น",
        -9.446242621678694
      ],
      [
        "คอน",
        -9.44948522695623
      ],
      [
        "การพิ",
        -9.450762503397378
      ],
      [
        "แถ",
        -9.453268993974131
      ],
      [
        "สอน",
        -9.45335801740866
      ],
      [
        "ยาน",
        -9.454485226488908
      ],
      [
        "ทา",
        -9.45529058846704
      ],
      [
        "ทธิ",
        -9.455379069895816
      ],
      [
        "กลม",
        -9.458235473506289
      ],
      [
        "ีชีวิต",
        -9.470269653685483
      ],
      [
        "ดิ",
        -9.473308168002294
      ],
      [
        "เนื้อ",
        -9.48114734623889
      ],
      [
        "อด",
        -9.481628583513297
      ],
      [
        "โห",
        -9.495992223412932
      ],
      [
        "้น",
        -9.498040884340995
      ],
      [
        "อันด",
        -9.500303337177863
      ],
      [
        "สมม",
        -9.508084190522993
      ],
      [
        "เอ็ก",
        -9.528776425687917
      ],
      [
        "แก",
        -9.52889874528765
      ],
      [
        "กีต",
        -9.530474569759148
      ],
      [
        "โครงการ",
        -9.535637232521246
      ],
      [
        "จร",
        -9.543159830752819
      ],
      [
        "บุ",
        -9.545856142384627
      ],
      [
        "กร",
        -9.547656966699275
      ],
      [
        "ส่อง",
        -9.5496403764997
      ],
      [
        "รั",
        -9.550968282560623
      ],
      [
        "โพ",
        -9.55211138044346
      ],
      [
        "เจ",
        -9.553975810187252
      ],
      [
        "ที่อยู่",
        -9.557778564545877
      ],
      [
        "ใช",
        -9.565189274068688
      ],
      [
        "ดน",
        -9.567698792019588
      ],
      [
        "ดเด",
        -9.568663744240387
      ],
      [
        "คลิ",
        -9.572825756447127
      ],
      [
        "คลา",
        -9.574842800419912
      ],
      [
        "านุก",
        -9.581502828857955
      ],
      [
        "ปิ",
        -9.595054413381165
      ],
      [
        "มพ",
        -9.603268880078037
      ],
      [
        "มมา",
        -9.604719313379945
      ],
      [
        "รู",
        -9.604967245639465
      ],
      [
        "การป",
        -9.607670846087228
      ],
      [
        "วิจัย",
        -9.60866478323004
      ],
      [
        "ประมวลผล",
        -9.609214412779737
      ],
      [
        "ุณ",
        -9.609917157088153
      ],
      [
        "พฤติกรรม",
        -9.619069640094569
      ],
      [
        "งครามโลกครั้งที่",
        -9.619070663218737
      ],
      [
        "ศัพท์",
        -9.619071064824764
      ],
      [
        "ตุลา",
        -9.619088050798297
      ],
      [
        "วงจร",
        -9.619331958504176
      ],
      [
        "วิกิ",
        -9.619350057697215
      ],
      [
        "ใกล้",
        -9.619380017838424
      ],
      [
        "ทุกวัน",
        -9.619381906172173
      ],
      [
        "อุทก",
        -9.619416786419148
      ],
      [
        "สัตว์",
        -9.619572007721619
      ],
      [
        "เตรีย",
        -9.619825193449529
      ],
      [
        "การประมวล",
        -9.619893193022767
      ],
      [
        "บล็อก",
        -9.620445880598448
      ],
      [
        "ร้อย",
        -9.621118287378504
      ],
      [
        "ถ่าย",
        -9.621712339234122
      ],
      [
        "เจริญ",
        -9.621813033007614
      ],
      [
        "สัจ",
        -9.622234579856537
      ],
      [
        "โปร",
        -9.622541131630186
      ],
      [
        "เผย",
        -9.623557216585237
      ],
      [
        "นิติ",
        -9.623610226119585
      ],
      [
        "อุต",
        -9.62440101162525
      ],
      [
        "ีย",
        -9.624469310351127
      ],
      [
        "การเฝ้า",
        -9.624930333912742
      ],
      [
        "อัล",
        -9.625065037555576
      ],
      [
        "่อง",
        -9.626027077815008
      ],
      [
        "ทางกา",
        -9.62721226673425
      ],
      [
        "โทร",
        -9.627682124013617
      ],
      [
        "ขอบ",
        -9.628810114995092
      ],
      [
        "ห่าง",
        -9.629284688519173
      ],
      [
        "รวมตัว",
        -9.630155288986654
      ],
      [
        "วัต",
        -9.63057710628074
      ],
      [
        "โต้",
        -9.631205492903643
      ],
      [
        "โรง",
        -9.631456947567225
      ],
      [
        "เหมาะส",
        -9.63146793259191
      ],
      [
        "ขวา",
        -9.631822022423291
      ],
      [
        "ราะ",
        -9.632942301989793
      ],
      [
        "เนีย",
        -9.633942526925827
      ],
      [
        "รเจ",
        -9.63512055844102
      ],
      [
        "แกน",
        -9.635136188210545
      ],
      [
        "อีย",
        -9.637342634003735
      ],
      [
        "ความคิด",
        -9.639545506483199
      ],
      [
        "ิสต์",
        -9.640410246141734
      ],
      [
        "เบอร์",
        -9.641239160468587
      ],
      [
        "ยู",
        -9.642148806980726
      ],
      [
        "เทียม",
        -9.647013658288282
      ],
      [
        "ตร์",
        -9.647206396191272
      ],
      [
        "โภ",
        -9.648876547345015
      ],
      [
        "ขั้น",
        -9.649434928555525
      ],
      [
        "ราบ",
        -9.651660129110931
      ],
      [
        "าศาสตร์",
        -9.652599497196132
      ],
      [
        "มีชื่อ",
        -9.652902147695155
      ],
      [
        "็บ",
        -9.656594872507581
      ],
      [
        "ซ่",
        -9.659528110154213
      ],
      [
        "นคร",
        -9.659650805465525
      ],
      [
        "ค่อ",
        -9.662587044929143
      ],
      [
        "ยน",
        -9.66587340682214
      ],
      [
        "ชาย",
        -9.670229565811137
      ],
      [
        "เหมือนกั",
        -9.670758723126841
      ],
      [
        "กัด",
        -9.673093573104909
      ],
      [
        "้ม",
        -9.673842883372643
      ],
      [
        "แท",
        -9.674828709313871
      ],
      [
        "ราชการ",
        -9.67995168244034
      ],
      [
        "วั",
        -9.684679996199149
      ],
      [
        "รอน",
        -9.688434968509851
      ],
      [
        "นข้า",
        -9.692674383447013
      ],
      [
        "เศ",
        -9.69526740824978
      ],
      [
        "เธอ",
        -9.704010526176264
      ],
      [
        "โครง",
        -9.709348268533413
      ],
      [
        "กราฟิก",
        -9.726985340100397
      ],
      [
        "ออ",
        -9.731205093231239
      ],
      [
        "ห้า",
        -9.738680189052607
      ],
      [
        "ทด",
        -9.740910963212485
      ],
      [
        "ลาด",
        -9.742268278535983
      ],
      [
        "์ด",
        -9.743726858880873
      ],
      [
        "ธาน",
        -9.747020532863948
      ],
      [
        "ว้",
        -9.754081991681115
      ],
      [
        "่ง",
        -9.754879251663425
      ],
      [
        "ียร",
        -9.760853137792388
      ],
      [
        "ษ",
        -9.765658517288319
      ],
      [
        "เบิ",
        -9.767828603002517
      ],
      [
        "อน",
        -9.772095526639317
      ],
      [
        "็",
        -9.783307363493348
      ],
      [
        "ไห",
        -9.797331364372466
      ],
      [
        "ครอ",
        -9.801346840853343
      ],
      [
        "แด",
        -9.804965666632517
      ],
      [
        "ตะวันออก",
        -9.80680853546692
      ],
      [
        "บา",
        -9.810045036661812
      ],
      [
        "กระ",
        -9.812460309616972
      ],
      [
        "าว",
        -9.816053119189196
      ],
      [
        "ยก",
        -9.81840939367988
      ],
      [
        "เรีย",
        -9.819422696335543
      ],
      [
        "ตก",
        -9.820057556186315
      ],
      [
        "หัน",
        -9.820190594276346
      ],
      [
        "บิว",
        -9.831398776956563
      ],
      [
        "ลม",
        -9.837243000978393
      ],
      [
        "กฐาน",
        -9.8425251424194
      ],
      [
        "เซ็น",
        -9.854037673053178
      ],
      [
        "ท่าน",
        -9.858905320142636
      ],
      [
        "ิต",
        -9.859876223996274
      ],
      [
        "แก้",
        -9.861872513225187
      ],
      [
        "ักษ",
        -9.862478830601866
      ],
      [
        "็ก",
        -9.862548554627697
      ],
      [
        "นอกจาก",
        -9.864219780168236
      ],
      [
        "กัง",
        -9.865562389011211
      ],
      [
        "ยั่งยืน",
        -9.86686368480836
      ],
      [
        "ทั่ว",
        -9.86782530960784
      ],
      [
        "ัมภ",
        -9.868248945076836
      ],
      [
        "แก้ไข",
        -9.868583562679904
      ],
      [
        "หมุน",
        -9.86904739660317
      ],
      [
        "เศรษฐศาสตร์",
        -9.869069634186474
      ],
      [
        "ไวโอเล",
        -9.869069740409302
      ],
      [
        "กรุงเทพ",
        -9.869069854103314
      ],
      [
        "กำลัง",
        -9.869070382031367
      ],
      [
        "แข็ง",
        -9.869070883850261
      ],
      [
        "บรรทัด",
        -9.869071233472779
      ],
      [
        "สำเร็จ",
        -9.869073773275801
      ],
      [
        "บังคับ",
        -9.869073837304242
      ],
      [
        "เพชร",
        -9.86907687332561
      ],
      [
        "อัลตรา",
        -9.869080171769397
      ],
      [
        "เทศกาล",
        -9.869089841617583
      ],
      [
        "ชาร์ลส",
        -9.869094992028142
      ],
      [
        "การรู้จำ",
        -9.869100909256076
      ],
      [
        "การแพทย์",
        -9.869114273812427
      ],
      [
        "ลัทธิ",
        -9.869156094340925
      ],
      [
        "ตาราง",
        -9.869182216558173
      ],
      [
        "จริยธรรม",
        -9.869243871351738
      ],
      [
        "เหมือง",
        -9.869273567938384
      ],
      [
        "เสมอ",
        -9.869451433101176
      ],
      [
        "พรรค",
        -9.869525558671874
      ],
      [
        "เอ็ม",
        -9.869550170583619
      ],
      [
        "สุขภาพ",
        -9.86960477792136
      ],
      [
        "ริยา",
        -9.869958833184375
      ],
      [
        "กฎ",
        -9.870129087816562
      ],
      [
        "ี่ยว",
        -9.870182481322407
      ],
      [
        "เครือ",
        -9.870229620370171
      ],
      [
        "ราคา",
        -9.870272076462522
      ],
      [
        "นาที",
        -9.870440611686512
      ],
      [
        "ชั่ว",
        -9.870453014093638
      ],
      [
        "ผลิต",
        -9.870476796175726
      ],
      [
        "ให้ความสำคัญ",
        -9.870860869911231
      ],
      [
        "ยุติ",
        -9.87089687539049
      ],
      [
        "จอห",
        -9.870955188625798
      ],
      [
        "เวล",
        -9.871083422888862
      ],
      [
        "ซึ",
        -9.871152362115629
      ],
      [
        "เสรี",
        -9.871332481935157
      ],
      [
        "ชุด",
        -9.871563170641569
      ],
      [
        "วน",
        -9.871908670858888
      ],
      [
        "โดยตรง",
        -9.872067355748975
      ],
      [
        "ศาส",
        -9.872411544947017
      ],
      [
        "ลอ",
        -9.874795369043657
      ],
      [
        "ุ่ม",
        -9.874896419261756
      ],
      [
        "ผสม",
        -9.876074005399218
      ],
      [
        "ปลด",
        -9.877022974670542
      ],
      [
        "รัม",
        -9.878390689589956
      ],
      [
        "หลักฐาน",
        -9.878437452028209
      ],
      [
        "รรถ",
        -9.878729233459536
      ],
      [
        "นานา",
        -9.878775112030526
      ],
      [
        "การแข่งขัน",
        -9.880375585807798
      ],
      [
        "เชีย",
        -9.880616373314446
      ],
      [
        "คดี",
        -9.88187766292063
      ],
      [
        "ขาย",
        -9.883655456781224
      ],
      [
        "ความร",
        -9.884375919879854
      ],
      [
        "ึก",
        -9.88645271449766
      ],
      [
        "เข้ากับ",
        -9.887956941100768
      ],
      [
        "ทะ",
        -9.889574980981937
      ],
      [
        "ฮอ",
        -9.889738557619332
      ],
      [
        "่อน",
        -9.890611255894
      ],
      [
        "ภาวะ",
        -9.89301750707552
      ],
      [
        "้าง",
        -9.894600939051687
      ],
      [
        "ลูก",
        -9.895451148152056
      ],
      [
        "ขอ",
        -9.896600445677667
      ],
      [
        "สโต",
        -9.898928953505889
      ],
      [
        "กรุง",
        -9.900677533464686
      ],
      [
        "ชล",
        -9.90120508792898
      ],
      [
        "กรอบ",
        -9.905555968223188
      ],
      [
        "เชื่อม",
        -9.905960940891656
      ],
      [
        "เคร",
        -9.906538617359695
      ],
      [
        "สิบ",
        -9.907371050599995
      ],
      [
        "ไร",
        -9.910717471824364
      ],
      [
        "ลิฟ",
        -9.912264802620182
      ],
      [
        "มีผล",
        -9.91468105387919
      ],
      [
        "เชื่อถือ",
        -9.918916443276268
      ],
      [
        "คาน",
        -9.93034904774812
      ],
      [
        "เซอร์",
        -9.930459836067003
      ],
      [
        "ได",
        -9.930757380675173
      ],
      [
        "หล",
        -9.93208086085442
      ],
      [
        "โท",
        -9.932304071188678
      ],
      [
        "ูด",
        -9.939885059457072
      ],
      [
        "นอ",
        -9.940885326376742
      ],
      [
        "ก่อนที่",
        -9.940963386740249
      ],
      [
        "นซ",
        -9.942245032065351
      ],
      [
        "ลด",
        -9.944266573278107
      ],
      [
        "สัน",
        -9.961639536635257
      ],
      [
        "ทู",
        -9.962010789601834
      ],
      [
        "ผส",
        -9.968451822969621
      ],
      [
        "ีย์",
        -9.97061112806282
      ],
      [
        "สต",
        -9.97516615670646
      ],
      [
        "้าย",
        -9.975461147809
      ],
      [
        "เช่",
        -9.977293326809301
      ],
      [
        "ฤ",
        -9.979277411650367
      ],
      [
        "ฟรา",
        -9.982630239280223
      ],
      [
        "ฟเ",
        -9.982668427732374
      ],
      [
        "สน",
        -9.986875067541584
      ],
      [
        "สี",
        -9.989142278728082
      ],
      [
        "รับร",
        -9.991428179281161
      ],
      [
        "ลิม",
        -9.994628129169715
      ],
      [
        "วิด",
        -9.998382653567377
      ],
      [
        "ั่น",
        -10.003039171142541
      ],
      [
        "ดล",
        -10.00797381824419
      ],
      [
        "ทิน",
        -10.009439892985633
      ],
      [
        "วาง",
        -10.015741782079624
      ],
      [
        "แพ",
        -10.016861264712858
      ],
      [
        "นวา",
        -10.019312136037511
      ],
      [
        "พิพ",
        -10.021750965388849
      ],
      [
        "สนาม",
        -10.025063167088028
      ],
      [
        "รม",
        -10.035530333011774
      ],
      [
        "นามแ",
        -10.036324030149526
      ],
      [
        "แส",
        -10.037343090964423
      ],
      [
        "ร้อง",
        -10.042577993794279
      ],
      [
        "คอร์",
        -10.04762978567374
      ],
      [
        "ัย",
        -10.050526405216285
      ],
      [
        "แน่",
        -10.05239136521947
      ],
      [
        "คู",
        -10.054349241142782
      ],
      [
        "เป็นไป",
        -10.056228455990935
      ],
      [
        "เปล่",
        -10.057216714417745
      ],
      [
        "อุ",
        -10.059132952213075
      ],
      [
        "ลั",
        -10.066220772215585
      ],
      [
        "จู",
        -10.068881554041083
      ],
      [
        "ความจำ",
        -10.073873437777207
      ],
      [
        "กิ",
        -10.073965803413088
      ],
      [
        "ั",
        -10.083124216888626
      ],
      [
        "ปล",
        -10.08531814199588
      ],
      [
        "ือน",
        -10.088142944425778
      ],
      [
        "เฉ",
        -10.088353093120299
      ],
      [
        "ุนิยม",
        -10.0940341369609
      ],
      [
        "อริ",
        -10.097722550083331
      ],
      [
        "รรณ",
        -10.09996650002441
      ],
      [
        "สต์",
        -10.107323965475777
      ],
      [
        "อะ",
        -10.117862889707887
      ],
      [
        "แฟร",
        -10.131566975338654
      ],
      [
        "ในทาง",
        -10.132097103042678
      ],
      [
        "นิว",
        -10.132871989095678
      ],
      [
        "ื",
        -10.13642348686214
      ],
      [
        "หาร",
        -10.138127334846557
      ],
      [
        "ิทธิ",
        -10.141324012871442
      ],
      [
        "ปก",
        -10.142248329793413
      ],
      [
        "ประจ",
        -10.144034539517552
      ],
      [
        "รป",
        -10.147911202702044
      ],
      [
        "สรร",
        -10.151919898145088
      ],
      [
        "วัล",
        -10.159134320884688
      ],
      [
        "อิสระ",
        -10.1678112061136
      ],
      [
        "ผู้บ",
        -10.170203380701897
      ],
      [
        "ท์",
        -10.174524622360407
      ],
      [
        "๊",
        -10.176436113942458
      ],
      [
        "คุ",
        -10.18022350546248
      ],
      [
        "โปเ",
        -10.180666434609371
      ],
      [
        "เมโ",
        -10.180880253339607
      ],
      [
        "นอน",
        -10.186698980490123
      ],
      [
        "เลย",
        -10.186872872798173
      ],
      [
        "ยะ",
        -10.186968328405035
      ],
      [
        "อบ",
        -10.189588511588406
      ],
      [
        "เฝ้า",
        -10.192038222236123
      ],
      [
        "นุษย",
        -10.197451069668448
      ],
      [
        "แวดล้อม",
        -10.20186822884771
      ],
      [
        "ความมั่นคง",
        -10.202402967856106
      ],
      [
        "การอนุรักษ์",
        -10.202402971194442
      ],
      [
        "นิวเคลีย",
        -10.202403003225665
      ],
      [
        "สมเด็จพระ",
        -10.202403051940475
      ],
      [
        "ราชการบริหารส่วน",
        -10.20240333308934
      ],
      [
        "ฟื้น",
        -10.202403538322866
      ],
      [
        "ไมโคร",
        -10.202403888764902
      ],
      [
        "ณฑ์",
        -10.202404010422914
      ],
      [
        "ศักยภาพ",
        -10.202406313387872
      ],
      [
        "คำนึงถึง",
        -10.2024072041912
      ],
      [
        "สมบูรณ",
        -10.202416479707034
      ],
      [
        "พืช",
        -10.202418995718624
      ],
      [
        "กติกา",
        -10.202431573573138
      ],
      [
        "ล้วน",
        -10.202458233169288
      ],
      [
        "ับเบิล",
        -10.202470169283748
      ],
      [
        "บรรลุ",
        -10.202482495042403
      ],
      [
        "สืบ",
        -10.202499838385833
      ],
      [
        "จำนวนเต็ม",
        -10.202605084844965
      ],
      [
        "เรื่อย",
        -10.202662065899869
      ],
      [
        "สันติ",
        -10.202666525417824
      ],
      [
        "ขีด",
        -10.202844609212635
      ],
      [
        "อาหาร",
        -10.20304383138015
      ],
      [
        "ศักดิ์",
        -10.203350071927758
      ],
      [
        "อัตรา",
        -10.203394899571084
      ],
      [
        "ศิลปะ",
        -10.203504809884551
      ],
      [
        "แทรก",
        -10.203921892226871
      ],
      [
        "ดุล",
        -10.203986498277787
      ],
      [
        "ไม้",
        -10.204200478917663
      ],
      [
        "เจ้า",
        -10.20421962497512
      ],
      [
        "ภัย",
        -10.205107515714047
      ],
      [
        "สหรัฐ",
        -10.205547580297544
      ],
      [
        "เวียน",
        -10.20555989912583
      ],
      [
        "พารา",
        -10.20607314510103
      ],
      [
        "คีย์",
        -10.206973150979945
      ],
      [
        "มูล",
        -10.207787138319542
      ],
      [
        "ย้อน",
        -10.208258804551807
      ],
      [
        "การบริหาร",
        -10.208919007124747
      ],
      [
        "ตลาด",
        -10.208950251776358
      ],
      [
        "ลท์",
        -10.209530563905071
      ],
      [
        "ถึงแม้",
        -10.210357663290344
      ],
      [
        "แฮ",
        -10.211626292330616
      ],
      [
        "ทวี",
        -10.211834242970802
      ],
      [
        "ทอด",
        -10.21262936806882
      ],
      [
        "ขาด",
        -10.212792605221019
      ],
      [
        "ระบ",
        -10.21322105464363
      ],
      [
        "ขาว",
        -10.214303523930429
      ],
      [
        "อนุ",
        -10.216476551321215
      ],
      [
        "ความส",
        -10.21675279045005
      ],
      [
        "การแก้",
        -10.216990143951074
      ],
      [
        "าภิ",
        -10.217532001422724
      ],
      [
        "วรรณ",
        -10.217622549950878
      ],
      [
        "การบ",
        -10.219243302311035
      ],
      [
        "ดัง",
        -10.220724767827484
      ],
      [
        "ก็ต",
        -10.221217444315064
      ],
      [
        "ศาล",
        -10.221715910240736
      ],
      [
        "ษณ",
        -10.222231387617905
      ],
      [
        "แปลง",
        -10.222529624092358
      ],
      [
        "ประสบ",
        -10.222547745693848
      ],
      [
        "มาร์กซ",
        -10.22278277918328
      ],
      [
        "ป้อง",
        -10.223270883005256
      ],
      [
        "ี่",
        -10.223275954800028
      ],
      [
        "ว้า",
        -10.226504359244352
      ],
      [
        "ต่อไป",
        -10.226523605387602
      ],
      [
        "สัม",
        -10.226873382903227
      ],
      [
        "แปร",
        -10.227552590287125
      ],
      [
        "บ่ง",
        -10.22820117325514
      ],
      [
        "เฮ",
        -10.228753658785077
      ],
      [
        "ภาครัฐ",
        -10.228900910854426
      ],
      [
        "าญา",
        -10.23068921875952
      ],
      [
        "มือง",
        -10.233991126795654
      ],
      [
        "จับ",
        -10.239213991816108
      ],
      [
        "ลี่ย",
        -10.2400790539721
      ],
      [
        "้าน",
        -10.24448294795536
      ],
      [
        "แอน",
        -10.247579015796216
      ],
      [
        "ฝั",
        -10.252599247492801
      ],
      [
        "วด",
        -10.252615555094545
      ],
      [
        "หวั",
        -10.254060775931011
      ],
      [
        "ำเ",
        -10.255768396867898
      ],
      [
        "การประเมินผล",
        -10.25621003995016
      ],
      [
        "ีพิ",
        -10.256938052580212
      ],
      [
        "เลอ",
        -10.257954732383705
      ],
      [
        "กรรมการ",
        -10.259106078118334
      ],
      [
        "ังก์",
        -10.260786679581
      ],
      [
        "นาบ",
        -10.266289582327245
      ],
      [
        "การจัดการ",
        -10.268885854802715
      ],
      [
        "รัก",
        -10.27712695907479
      ],
      [
        "ริก",
        -10.278405559654448
      ],
      [
        "เกียร",
        -10.27852137385078
      ],
      [
        "ุต",
        -10.279758379168284
      ],
      [
        "กุม",
        -10.282487515376273
      ],
      [
        "อส",
        -10.28842505421632
      ],
      [
        "เดิน",
        -10.288562753336553
      ],
      [
        "่วง",
        -10.29362481909423
      ],
      [
        "รมแ",
        -10.294997192821997
      ],
      [
        "ไท",
        -10.303409143007158
      ],
      [
        "นโยบาย",
        -10.304970945251378
      ],
      [
        "รู้จ",
        -10.30538885530357
      ],
      [
        "สะ",
        -10.31176736095159
      ],
      [
        "ฮั",
        -10.312071890278753
      ],
      [
        "การจำ",
        -10.321062615888712
      ],
      [
        "ตาล",
        -10.32375465409772
      ],
      [
        "นิวตร",
        -10.32585687162807
      ],
      [
        "มาร์",
        -10.325975003646711
      ],
      [
        "พร",
        -10.327582700965884
      ],
      [
        "บ้า",
        -10.328012178753081
      ],
      [
        "โค้",
        -10.330112316517434
      ],
      [
        "ชั",
        -10.330660273461046
      ],
      [
        "สิ",
        -10.331670113707473
      ],
      [
        "จากน",
        -10.332187929528775
      ],
      [
        "เป็นตัว",
        -10.333255380117128
      ],
      [
        "ม่",
        -10.334556770193945
      ],
      [
        "สัญชาต",
        -10.338825769417854
      ],
      [
        "ตร",
        -10.33889575834149
      ],
      [
        "ากร",
        -10.340783706722274
      ],
      [
        "ริม",
        -10.349188007458741
      ],
      [
        "แช",
        -10.349909441130382
      ],
      [
        "ไล",
        -10.358222864920046
      ],
      [
        "่องส",
        -10.358779297050672
      ],
      [
        "นั",
        -10.360413498065679
      ],
      [
        "คาด",
        -10.363113157941472
      ],
      [
        "พจ",
        -10.363163766635761
      ],
      [
        "สั",
        -10.364306211533245
      ],
      [
        "เอีย",
        -10.367259762555573
      ],
      [
        "ฟา",
        -10.3731940419316
      ],
      [
        "คา",
        -10.37461283740246
      ],
      [
        "คำน",
        -10.37513381363797
      ],
      [
        "ปรับตัว",
        -10.375898194342517
      ],
      [
        "ัตร",
        -10.380588466860686
      ],
      [
        "ัตต",
        -10.385938401394064
      ],
      [
        "การวิเคราะห์",
        -10.38700746615297
      ],
      [
        "รัด",
        -10.389994069182437
      ],
      [
        "การประ",
        -10.392927708272397
      ],
      [
        "เลิ",
        -10.39361553065059
      ],
      [
        "ัว",
        -10.39798949054754
      ],
      [
        "ลัม",
        -10.409048800964493
      ],
      [
        "งเศ",
        -10.411866192834921
      ],
      [
        "ลซ",
        -10.412137507446847
      ],
      [
        "แน",
        -10.414098422550014
      ],
      [
        "ลุ",
        -10.415651183076616
      ],
      [
        "ทางการเ",
        -10.420688577387718
      ],
      [
        "ประห",
        -10.422117905341157
      ],
      [
        "งการ",
        -10.423202137726554
      ],
      [
        "ผั",
        -10.42813464193289
      ],
      [
        "าง",
        -10.440764797954811
      ],
      [
        "กราฟ",
        -10.44264153895331
      ],
      [
        "วิท",
        -10.44911236427143
      ],
      [
        "ีช",
        -10.472257821974544
      ],
      [
        "คอส",
        -10.479130639303719
      ],
      [
        "มั",
        -10.48808080337735
      ],
      [
        "ดาร",
        -10.50243743326219
      ],
      [
        "ครา",
        -10.503161463553713
      ],
      [
        "พร้อม",
        -10.506855120636077
      ],
      [
        "ทอ",
        -10.511813136971446
      ],
      [
        "ซิส",
        -10.513947389862524
      ],
      [
        "ยาย",
        -10.521310267825134
      ],
      [
        "แบร",
        -10.529005219422912
      ],
      [
        "บ่อ",
        -10.535141677685175
      ],
      [
        "ไค",
        -10.537200650755752
      ],
      [
        "ขา",
        -10.540724064780168
      ],
      [
        "อฟ",
        -10.545509404253188
      ],
      [
        "นโยบายการ",
        -10.554319592431046
      ],
      [
        "กี",
        -10.560070883834733
      ],
      [
        "เหมือน",
        -10.565211638038207
      ],
      [
        "ลาส",
        -10.589031417293192
      ],
      [
        "กษ์",
        -10.59671669880309
      ],
      [
        "ซา",
        -10.611118102264504
      ],
      [
        "วาร",
        -10.613104185487646
      ],
      [
        "ถือได้",
        -10.61691149310479
      ],
      [
        "พั",
        -10.618746586725294
      ],
      [
        "ประเมิน",
        -10.630176394616793
      ],
      [
        "ชั่",
        -10.632810419491422
      ],
      [
        "เข",
        -10.633582242436322
      ],
      [
        "ฟัง",
        -10.635357834145694
      ],
      [
        "าก",
        -10.636600752618765
      ],
      [
        "ญาต",
        -10.646136366988674
      ],
      [
        "ล่",
        -10.651269375710834
      ],
      [
        "อ็อ",
        -10.654146708797796
      ],
      [
        "่งเ",
        -10.664395513770517
      ],
      [
        "กรม",
        -10.670217626071684
      ],
      [
        "าวร",
        -10.672980511192472
      ],
      [
        "ารี",
        -10.673844169195414
      ],
      [
        "ปัญญา",
        -10.680712779721567
      ],
      [
        "มนุษย",
        -10.681992127766243
      ],
      [
        "ท่องเที่ยว",
        -10.68662551867427
      ],
      [
        "บัน",
        -10.687979255910879
      ],
      [
        "รียน",
        -10.691419204393336
      ],
      [
        "บริหาร",
        -10.69217621029913
      ],
      [
        "พันธุ",
        -10.693687831386876
      ],
      [
        "ธ์",
        -10.700344032673298
      ],
      [
        "ศิลป",
        -10.700609382026384
      ],
      [
        "ยั",
        -10.701814206524736
      ],
      [
        "ึ่ง",
        -10.702083552567515
      ],
      [
        "พิธี",
        -10.702174455155852
      ],
      [
        "ฬา",
        -10.702343277823326
      ],
      [
        "ฏ",
        -10.70238821610848
      ],
      [
        "1",
        -10.702402967338378
      ],
      [
        "สตาร์ทอัพ",
        -10.70240296734221
      ],
      [
        "วินิจฉัย",
        -10.70240296734357
      ],
      [
        "2",
        -10.702402967378319
      ],
      [
        "ฺ",
        -10.702402967378319
      ],
      [
        "ข้าราชการพลเรือน",
        -10.702402967789158
      ],
      [
        "ผลิตภัณฑ์",
        -10.702402968423911
      ],
      [
        "พระราชเสาวนีย",
        -10.70240297396437
      ],
      [
        "กุญแจ",
        -10.702402988824018
      ],
      [
        "เครื่องราชอิสริย",
        -10.7024029893115
      ],
      [
        "อินเทอร์เน็ต",
        -10.702403007155137
      ],
      [
        "ธภัณฑ์",
        -10.702403023982264
      ],
      [
        "กิโลกรัม",
        -10.702403026013444
      ],
      [
        "ปัจเจก",
        -10.702403091940276
      ],
      [
        "โซเชียล",
        -10.702403452615803
      ],
      [
        "สวัสดิ",
        -10.70240569179342
      ],
      [
        "นวัตกรรม",
        -10.702409991852793
      ],
      [
        "โรคหัวใจ",
        -10.702413187894285
      ],
      [
        "สับสน",
        -10.702413286255098
      ],
      [
        "วิธีพิจารณาความ",
        -10.702413811627427
      ],
      [
        "เจ็ด",
        -10.702428539826858
      ],
      [
        "การป้องกัน",
        -10.702433554623028
      ],
      [
        "ในการแก้ไขปัญหา",
        -10.702435206845502
      ],
      [
        "กษัตร",
        -10.702446279403064
      ],
      [
        "การเรียนการสอน",
        -10.702450395709356
      ],
      [
        "ยึด",
        -10.702473577291476
      ],
      [
        "หมุนเวียน",
        -10.702494556731866
      ],
      [
        "ปริญญา",
        -10.702497554096084
      ],
      [
        "ทรัพย์",
        -10.702499500629054
      ],
      [
        "พระราชพิธี",
        -10.702658763832149
      ],
      [
        "กิโลเมตร",
        -10.702688519296016
      ],
      [
        "ซื้อ",
        -10.702725957339887
      ],
      [
        "การบริหารจัดการ",
        -10.702974720778645
      ],
      [
        "ตกลง",
        -10.703160765991733
      ],
      [
        "แพ่ง",
        -10.70330396727226
      ],
      [
        "เอ็ด",
        -10.703325152165982
      ],
      [
        "ภูมิปัญญา",
        -10.703451338786277
      ],
      [
        "เสื่อม",
        -10.703471067815462
      ],
      [
        "ชื่นช",
        -10.703776289413883
      ],
      [
        "ล็อก",
        -10.703816503470298
      ],
      [
        "เบีย",
        -10.70381651195871
      ],
      [
        "เกษตรกรรม",
        -10.70417242865464
      ],
      [
        "เบิร์",
        -10.70421608505945
      ],
      [
        "ยูเร",
        -10.704771519835994
      ],
      [
        "ราชเลขา",
        -10.704782352421923
      ],
      [
        "ละคร",
        -10.704820234179627
      ],
      [
        "ฮิต",
        -10.704827472294435
      ],
      [
        "ปัจจัย",
        -10.705125481979154
      ],
      [
        "ต่ำ",
        -10.705154141413152
      ],
      [
        "พุต",
        -10.70552649909206
      ],
      [
        "ระบบการจัดการ",
        -10.706278467826111
      ],
      [
        "หมื่น",
        -10.706294348509326
      ],
      [
        "การลงทุน",
        -10.70701198027972
      ],
      [
        "อย่างยั่งยืน",
        -10.707482631244995
      ],
      [
        "คลัง",
        -10.707620767089695
      ],
      [
        "ทำเล",
        -10.707873607794683
      ],
      [
        "พันธุศาสตร์",
        -10.707923104187262
      ],
      [
        "แท้",
        -10.708385501669731
      ],
      [
        "จิตเวช",
        -10.709266548406239
      ],
      [
        "ข่าย",
        -10.70927310318058
      ],
      [
        "รณร",
        -10.709404406917336
      ],
      [
        "บรรพ",
        -10.70969463030384
      ],
      [
        "ภาษี",
        -10.710923361096793
      ],
      [
        "ธุ",
        -10.710931511416655
      ],
      [
        "ข่ง",
        -10.711798215942597
      ],
      [
        "อัป",
        -10.712125162550679
      ],
      [
        "ไหล",
        -10.712801599112698
      ],
      [
        "ธาร",
        -10.71368288378329
      ],
      [
        "ปลูก",
        -10.713814456172873
      ],
      [
        "มวลรวม",
        -10.715239623166424
      ],
      [
        "ออฟ",
        -10.715377921753252
      ],
      [
        "จฉ",
        -10.715548340936762
      ],
      [
        "ชาติพันธุ์",
        -10.7161593504146
      ],
      [
        "โธ",
        -10.716997581990096
      ],
      [
        "การบูรณาการ",
        -10.718127234842301
      ],
      [
        "ฮัม",
        -10.718171754957124
      ],
      [
        "เจอร์",
        -10.720839603865699
      ],
      [
        "อาห",
        -10.721565099570183
      ],
      [
        "เยาว",
        -10.721992125158561
      ],
      [
        "อินทร",
        -10.72253272034821
      ],
      [
        "ฮาร์ท",
        -10.723474021244854
      ],
      [
        "จ้าง",
        -10.723768933659954
      ],
      [
        "ิปัญญา",
        -10.72394558486854
      ],
      [
        "ตรวจว",
        -10.726199505647477
      ],
      [
        "เรือ",
        -10.727584201461314
      ],
      [
        "สมุ",
        -10.728702327627406
      ],
      [
        "ตอ",
        -10.728934016591825
      ],
      [
        "ชิง",
        -10.73120179267303
      ],
      [
        "คุ้",
        -10.731352513385769
      ],
      [
        "ก้อน",
        -10.73167106975536
      ],
      [
        "เบล",
        -10.733757559625186
      ],
      [
        "บัลล",
        -10.733878279802779
      ],
      [
        "อิส",
        -10.735824829672742
      ],
      [
        "ท่องเที่ยวเชิง",
        -10.736515544328888
      ],
      [
        "ื่อม",
        -10.737707873863886
      ],
      [
        "โรค",
        -10.738050944260337
      ],
      [
        "แมน",
        -10.739338433064827
      ],
      [
        "อั",
        -10.740723697773372
      ],
      [
        "เจร",
        -10.742823347694106
      ],
      [
        "ข้",
        -10.742924469048223
      ],
      [
        "บรมราช",
        -10.743665833999842
      ],
      [
        "ลัว",
        -10.744751766564011
      ],
      [
        "การตรวจ",
        -10.745120303949616
      ],
      [
        "งทุน",
        -10.746467672604494
      ],
      [
        "เรียบ",
        -10.746525141478925
      ],
      [
        "บริพ",
        -10.747831529644492
      ],
      [
        "เคีย",
        -10.74804133812837
      ],
      [
        "ดิจิ",
        -10.748666461221436
      ],
      [
        "ฮา",
        -10.749639899655392
      ],
      [
        "การเรียนรู้แบบ",
        -10.749819233267097
      ],
      [
        "การเรียน",
        -10.75157902132669
      ],
      [
        "สาระ",
        -10.751613780021579
      ],
      [
        "การพัฒนาท",
        -10.751939913546934
      ],
      [
        "หัส",
        -10.752921641505488
      ],
      [
        "ครอบ",
        -10.75899209823768
      ],
      [
        "วยความ",
        -10.761194187423662
      ],
      [
        "เป็นอิสระ",
        -10.761673291721143
      ],
      [
        "แปลก",
        -10.763226090446587
      ],
      [
        "กทาง",
        -10.763771973200184
      ],
      [
        "ชม",
        -10.763935412676217
      ],
      [
        "วิล",
        -10.76509705683229
      ],
      [
        "การรักษา",
        -10.766331332668472
      ],
      [
        "ตัด",
        -10.767017981839423
      ],
      [
        "อำน",
        -10.767059852749378
      ],
      [
        "โองการ",
        -10.771123547999116
      ],
      [
        "ฟอร์",
        -10.772630145745493
      ],
      [
        "ห้",
        -10.774308514986284
      ],
      [
        "โมเ",
        -10.775460256168675
      ],
      [
        "ควอ",
        -10.775736777425124
      ],
      [
        "แข",
        -10.77765617447831
      ],
      [
        "กี่",
        -10.780395947993991
      ],
      [
        "เพื่อการพัฒนา",
        -10.78170328898305
      ],
      [
        "็อน",
        -10.782647785052486
      ],
      [
        "ขาน",
        -10.786116396500791
      ],
      [
        "ฮอล",
        -10.787842018376622
      ],
      [
        "ป่า",
        -10.792777649929508
      ],
      [
        "บอก",
        -10.793626985767075
      ],
      [
        "ลบ",
        -10.80352431420753
      ],
      [
        "หลอ",
        -10.804381214210007
      ],
      [
        "หน",
        -10.808973284935073
      ],
      [
        "หาย",
        -10.811012752886912
      ],
      [
        "ูล",
        -10.811306230510093
      ],
      [
        "สอดคล้องกั",
        -10.813182548207969
      ],
      [
        "นาโ",
        -10.814876595614015
      ],
      [
        "ืน",
        -10.817310211085776
      ],
      [
        "วลา",
        -10.81738327052272
      ],
      [
        "ทร",
        -10.820192934812768
      ],
      [
        "ารณ์",
        -10.820764208217508
      ],
      [
        "โดยส่วน",
        -10.821736401141363
      ],
      [
        "ซาน",
        -10.82635245836177
      ],
      [
        "้างสรร",
        -10.82655582320292
      ],
      [
        "วิส",
        -10.82941745761418
      ],
      [
        "ยธรรม",
        -10.834127097193653
      ],
      [
        "ช่",
        -10.838069948142353
      ],
      [
        "บิด",
        -10.83891105245704
      ],
      [
        "เดต",
        -10.84154158657769
      ],
      [
        "เลื่อ",
        -10.842422153709077
      ],
      [
        "นาธิ",
        -10.844002779095046
      ],
      [
        "มิต",
        -10.844325238170123
      ],
      [
        "าชี",
        -10.844765840455631
      ],
      [
        "ญญา",
        -10.849307459773476
      ],
      [
        "ในยุค",
        -10.850384049048603
      ],
      [
        "เลโ",
        -10.852578206052195
      ],
      [
        "มีส่วน",
        -10.854135825482231
      ],
      [
        "้ำ",
        -10.857975503977348
      ],
      [
        "ทิศตะวัน",
        -10.860190235856374
      ],
      [
        "เก้า",
        -10.869765823152557
      ],
      [
        "เลฟ",
        -10.877773317434508
      ],
      [
        "ัชน",
        -10.890237581729313
      ],
      [
        "การแสดง",
        -10.89086388543453
      ],
      [
        "เข้ม",
        -10.892987523341628
      ],
      [
        "ระเบ",
        -10.896099712341107
      ],
      [
        "ธิบ",
        -10.89791556948831
      ],
      [
        "ณี",
        -10.899966817539662
      ],
      [
        "ความก",
        -10.906417644486549
      ],
      [
        "อนาคต",
        -10.907783790241387
      ],
      [
        "ความเ",
        -10.908646328726794
      ],
      [
        "กอ",
        -10.919443484780725
      ],
      [
        "ทัน",
        -10.92024627724123
      ],
      [
        "พหุน",
        -10.926623652565898
      ],
      [
        "ลาก",
        -10.929924268841173
      ],
      [
        "ดาวเ",
        -10.933963016639439
      ],
      [
        "คอ",
        -10.938433046256828
      ],
      [
        "ซอ",
        -10.938879326937213
      ],
      [
        "ร่",
        -10.941622715118296
      ],
      [
        "สาว",
        -10.944407357961069
      ],
      [
        "ผู้เรียน",
        -10.948410068840705
      ],
      [
        "ียว",
        -10.949210060601969
      ],
      [
        "ทุกค",
        -10.950265029218391
      ],
      [
        "เท่ากั",
        -10.951653325062939
      ],
      [
        "ตัวอ",
        -10.955221809949528
      ],
      [
        "แม",
        -10.960761338353036
      ],
      [
        "ญา",
        -10.962558901063687
      ],
      [
        "ังห",
        -10.968839780099078
      ],
      [
        "จะเป็น",
        -10.970452961803412
      ],
      [
        "ฟร",
        -10.973404217089188
      ],
      [
        "ฝน",
        -10.98997912423419
      ],
      [
        "ันที่",
        -11.001017979284267
      ],
      [
        "อาร",
        -11.005549699361504
      ],
      [
        "ายน",
        -11.017205622984815
      ],
      [
        "อที",
        -11.020119799742634
      ],
      [
        "ดำร",
        -11.021220399145314
      ],
      [
        "ปอร์",
        -11.030518380934996
      ],
      [
        "์เฟ",
        -11.035665917687108
      ],
      [
        "ต้องตาม",
        -11.036662874651846
      ],
      [
        "ิตย",
        -11.040146387574774
      ],
      [
        "รรค์",
        -11.05343567931406
      ],
      [
        "คล็",
        -11.05984688348791
      ],
      [
        "ำเส",
        -11.06502528474107
      ],
      [
        "ลน",
        -11.086142351250627
      ],
      [
        "ุกเ",
        -11.089739848744436
      ],
      [
        "นาซ",
        -11.099777441182303
      ],
      [
        "กันและ",
        -11.100213163318948
      ],
      [
        "ะไ",
        -11.105192071208938
      ],
      [
        "มู",
        -11.118552696679087
      ],
      [
        "ตรา",
        -11.119490842828295
      ],
      [
        "่อให้",
        -11.126862887668537
      ],
      [
        "โดม",
        -11.12980106698003
      ],
      [
        "็อ",
        -11.14228901694347
      ],
      [
        "หลว",
        -11.143165110717138
      ],
      [
        "รัว",
        -11.154228846217102
      ],
      [
        "ปร",
        -11.15517920368664
      ],
      [
        "ั้",
        -11.156222607984292
      ],
      [
        "ยาก",
        -11.156649779180698
      ],
      [
        "าด",
        -11.184659505862967
      ],
      [
        "รด",
        -11.185180051309734
      ],
      [
        "ถูกต้อง",
        -11.186645578924352
      ],
      [
        "ิโ",
        -11.19410375005896
      ],
      [
        "เก็",
        -11.201384480909475
      ],
      [
        "นิยา",
        -11.208022612120198
      ],
      [
        "ีก",
        -11.215174771862962
      ],
      [
        "ปไ",
        -11.215934572909333
      ],
      [
        "แจ",
        -11.230710767794262
      ],
      [
        "ีบท",
        -11.231173702347876
      ],
      [
        "ภา",
        -11.24177670405355
      ],
      [
        "อล",
        -11.242317828832826
      ],
      [
        "ราชานุ",
        -11.246753676195507
      ],
      [
        "็กซ",
        -11.253676835008338
      ],
      [
        "กต",
        -11.254549606423586
      ],
      [
        "ื้อเพล",
        -11.259316817176687
      ],
      [
        "การพัฒนาผู้",
        -11.266822738088383
      ],
      [
        "มีอ",
        -11.272769529891773
      ],
      [
        "โคล",
        -11.278600157466464
      ],
      [
        "จ์",
        -11.287346283411706
      ],
      [
        "นิต",
        -11.287722776120733
      ],
      [
        "ละเอ",
        -11.28778488833039
      ],
      [
        "ุด",
        -11.290346544382501
      ],
      [
        "เลน",
        -11.299298236201569
      ],
      [
        "ตัน",
        -11.30502163406541
      ],
      [
        "การกระ",
        -11.309315799760121
      ],
      [
        "งสั",
        -11.311337492393575
      ],
      [
        "ข้อส",
        -11.311907922789704
      ],
      [
        "ถน",
        -11.317698080609217
      ],
      [
        "รกรรม",
        -11.321842288809766
      ],
      [
        "าไว",
        -11.328684248545342
      ],
      [
        "ยศ",
        -11.334245881549355
      ],
      [
        "เอเ",
        -11.33591571408321
      ],
      [
        "าญ",
        -11.336717863598013
      ],
      [
        "ดาวพ",
        -11.343226133738984
      ],
      [
        "นิวต",
        -11.360812675138197
      ],
      [
        "ประกัน",
        -11.362041231162578
      ],
      [
        "ลอย",
        -11.366874340975533
      ],
      [
        "อผ",
        -11.366909759591334
      ],
      [
        "ห์",
        -11.375557352036198
      ],
      [
        "ื่อ",
        -11.379561309992322
      ],
      [
        "ประก",
        -11.381673714581757
      ],
      [
        "าร์ค",
        -11.389892191322978
      ],
      [
        "เย",
        -11.4000969196577
      ],
      [
        "ล็อ",
        -11.409402680475322
      ],
      [
        "วร",
        -11.411823636432729
      ],
      [
        "ขน",
        -11.412925996083082
      ],
      [
        "คั",
        -11.415214585440413
      ],
      [
        "ดั",
        -11.421199213885126
      ],
      [
        "ตี",
        -11.423594546642295
      ],
      [
        "ข้า",
        -11.431567198732036
      ],
      [
        "ปกต",
        -11.438578695336611
      ],
      [
        "เห",
        -11.440301804175975
      ],
      [
        "ธา",
        -11.450412549739166
      ],
      [
        "ยิ",
        -11.460395085570296
      ],
      [
        "สอดคล้อง",
        -11.462340672699872
      ],
      [
        "ำล",
        -11.465092922782157
      ],
      [
        "ื้อ",
        -11.468747849787723
      ],
      [
        "สุข",
        -11.478823445422643
      ],
      [
        "ริต",
        -11.483652812402969
      ],
      [
        "ศั",
        -11.487746657831932
      ],
      [
        "งหา",
        -11.489331434059636
      ],
      [
        "ิติ",
        -11.49142114357688
      ],
      [
        "เกีย",
        -11.491763552159824
      ],
      [
        "อบด้วย",
        -11.495560068838591
      ],
      [
        "ศา",
        -11.499329664144426
      ],
      [
        "รอ",
        -11.502964115035883
      ],
      [
        "ิล",
        -11.507272423641579
      ],
      [
        "การระ",
        -11.532216892015883
      ],
      [
        "ุง",
        -11.537008122699874
      ],
      [
        "อม",
        -11.538671105587525
      ],
      [
        "เถ",
        -11.544842933837508
      ],
      [
        "ลูกค",
        -11.545382481717791
      ],
      [
        "ญญ",
        -11.550477595954979
      ],
      [
        "เติ",
        -11.552883077511936
      ],
      [
        "ม็ก",
        -11.556672237721235
      ],
      [
        "ชอบ",
        -11.560313614437183
      ],
      [
        "ความพ",
        -11.563543553616105
      ],
      [
        "หม",
        -11.570607595397014
      ],
      [
        "าตร",
        -11.576808657594752
      ],
      [
        "ียม",
        -11.577104641028503
      ],
      [
        "จอ",
        -11.578333125933456
      ],
      [
        "ตั",
        -11.593000964379238
      ],
      [
        "ยว",
        -11.603138008460975
      ],
      [
        "ราชินี",
        -11.603645723930535
      ],
      [
        "ื่อง",
        -11.604477321060422
      ],
      [
        "งใ",
        -11.604714949143338
      ],
      [
        "สภาว",
        -11.606663731159339
      ],
      [
        "เหมาะ",
        -11.61440327422267
      ],
      [
        "ิเล",
        -11.629206205888659
      ],
      [
        "ทธ",
        -11.629246147798595
      ],
      [
        "คว",
        -11.629955883210512
      ],
      [
        "สปอ",
        -11.640872182510481
      ],
      [
        "จิตร",
        -11.64185074670693
      ],
      [
        "ออร์",
        -11.644231149871727
      ],
      [
        "มิเ",
        -11.649408812085394
      ],
      [
        "แร",
        -11.651852380060932
      ],
      [
        "าซ",
        -11.653637589664436
      ],
      [
        "เรียนรู้",
        -11.655256727942476
      ],
      [
        "การท่องเที่ยว",
        -11.65825283442884
      ],
      [
        "เปลี่ย",
        -11.660560113950634
      ],
      [
        "ีบ",
        -11.661966811830538
      ],
      [
        "หั",
        -11.6624621846431
      ],
      [
        "มาร์ก",
        -11.662527977299009
      ],
      [
        "บูรณาการ",
        -11.66329097227137
      ],
      [
        "กั",
        -11.666191576087655
      ],
      [
        "ียง",
        -11.669657669293109
      ],
      [
        "ภาษ",
        -11.669781958441106
      ],
      [
        "ดเลือ",
        -11.670730402941672
      ],
      [
        "ัต",
        -11.671591004002869
      ],
      [
        "การศึก",
        -11.674047834330546
      ],
      [
        "นั่",
        -11.67488084990633
      ],
      [
        "แม่น",
        -11.676028785466656
      ],
      [
        "หร",
        -11.676919262113426
      ],
      [
        "เหล่า",
        -11.679003619619316
      ],
      [
        "ัล",
        -11.682908416164961
      ],
      [
        "พันธ์",
        -11.683774424054505
      ],
      [
        "ห้อ",
        -11.6848885256613
      ],
      [
        "ขั้",
        -11.685825968994127
      ],
      [
        "เวชศาสตร์",
        -11.688400930913906
      ],
      [
        "เวีย",
        -11.690521305520326
      ],
      [
        "โป",
        -11.691539419577023
      ],
      [
        "ฎ",
        -11.691866150169446
      ],
      [
        "ิวัต",
        -11.694585034226476
      ],
      [
        "ประเมินผล",
        -11.69581715812797
      ],
      [
        "สัมพันธ",
        -11.697776342064362
      ],
      [
        "ศักดิ",
        -11.698473759361246
      ],
      [
        "สัตว",
        -11.69885630971129
      ],
      [
        "แห่",
        -11.69955900595637
      ],
      [
        "ัญจ",
        -11.699748760014385
      ],
      [
        "ปลอดภัย",
        -11.700188016551202
      ],
      [
        "ฐ",
        -11.701221981107249
      ],
      [
        "ตะวัน",
        -11.70159369673176
      ],
      [
        "แพทย",
        -11.702322936651788
      ],
      [
        "วิศวกร",
        -11.7023369084225
      ],
      [
        "ฑ",
        -11.702343155055315
      ],
      [
        "ฌ",
        -11.702402967378308
      ],
      [
        "ণ",
        -11.702402967378319
      ],
      [
        "-",
        -11.702402967378319
      ],
      [
        "อินเทอร์เ",
        -11.702427356904225
      ],
      [
        "ัณฑ",
        -11.70245829083494
      ],
      [
        "สัมพั",
        -11.702638682576595
      ],
      [
        "พระบรมราช",
        -11.702814572662781
      ],
      [
        "ประมวล",
        -11.702925803624126
      ],
      [
        "พลเรือ",
        -11.702962888399153
      ],
      [
        "วยงา",
        -11.703343886066076
      ],
      [
        "ด็จ",
        -11.703355819163622
      ],
      [
        "เต็ม",
        -11.703742512676149
      ],
      [
        "ราชพิธี",
        -11.703812012198572
      ],
      [
        "นธร",
        -11.704579178184543
      ],
      [
        "ุลกา",
        -11.704726309263652
      ],
      [
        "ื่อนไ",
        -11.704857535868996
      ],
      [
        "แก้ไขปัญหา",
        -11.705147122124167
      ],
      [
        "วัสด",
        -11.705717861592516
      ],
      [
        "เว็",
        -11.706054815216532
      ],
      [
        "่วย",
        -11.706088275868959
      ],
      [
        "สูตร",
        -11.706193442436145
      ],
      [
        "พระราชเส",
        -11.706824461977742
      ],
      [
        "กุล",
        -11.706869767630264
      ],
      [
        "ล้อม",
        -11.707453246536817
      ],
      [
        "พลัง",
        -11.707529317813655
      ],
      [
        "็นตัว",
        -11.707931626598311
      ],
      [
        "ข้าราช",
        -11.708732648364489
      ],
      [
        "ระวั",
        -11.709403109567718
      ],
      [
        "เมตรต่อ",
        -11.709606345783099
      ],
      [
        "จักษ",
        -11.710056984489343
      ],
      [
        "ลงทุน",
        -11.710073831042918
      ],
      [
        "าร์ทเ",
        -11.71098919804782
      ],
      [
        "ล้า",
        -11.711885807520714
      ],
      [
        "ถุน",
        -11.712326519395955
      ],
      [
        "คริส",
        -11.71352965141763
      ],
      [
        "หัวใจ",
        -11.713763091939372
      ],
      [
        "พันธ",
        -11.715173623465565
      ],
      [
        "นเวีย",
        -11.715190168832121
      ],
      [
        "ัตถ",
        -11.71583465919106
      ],
      [
        "ขนา",
        -11.71779091221021
      ],
      [
        "วิทยาศาสตร์กา",
        -11.720186672091115
      ],
      [
        "ค์ส",
        -11.720538197732356
      ],
      [
        "ราชสม",
        -11.723233393787503
      ],
      [
        "ลมาร์",
        -11.723411850989093
      ],
      [
        "หลาก",
        -11.723508083156712
      ],
      [
        "กรุ",
        -11.72494428530921
      ],
      [
        "ถู",
        -11.725647332030778
      ],
      [
        "ช้อ",
        -11.726497912534443
      ],
      [
        "ุ้ม",
        -11.728268943098897
      ],
      [
        "ร็จ",
        -11.734771256742267
      ],
      [
        "รัช",
        -11.73600096484309
      ],
      [
        "ให้ความส",
        -11.73666347573975
      ],
      [
        "็อก",
        -11.738692373236491
      ],
      [
        "ุธ",
        -11.742045066902545
      ],
      [
        "เรือน",
        -11.742721053621002
      ],
      [
        "ี่ยม",
        -11.744926947651264
      ],
      [
        "แล้",
        -11.74746229553496
      ],
      [
        "ปราก",
        -11.748009945871669
      ],
      [
        "ซับ",
        -11.748219615603997
      ],
      [
        "เปี",
        -11.748871642636324
      ],
      [
        "เครื่องราช",
        -11.751794035013043
      ],
      [
        "ิเค",
        -11.753043595584147
      ],
      [
        "เวช",
        -11.753098573903012
      ],
      [
        "รือ",
        -11.75376236492123
      ],
      [
        "ธิราช",
        -11.755543559904433
      ],
      [
        "ชาร์",
        -11.756443431230151
      ],
      [
        "รรดิ",
        -11.756563227153102
      ],
      [
        "็น",
        -11.757207495024634
      ],
      [
        "ฮิ",
        -11.757583026072288
      ],
      [
        "งราย",
        -11.75834914096197
      ],
      [
        "วร์",
        -11.758797996418469
      ],
      [
        "ิสต",
        -11.75907741273864
      ],
      [
        "หกรรม",
        -11.759601214821577
      ],
      [
        "ต้อ",
        -11.763341738103598
      ],
      [
        "แก๊ง",
        -11.763615969170388
      ],
      [
        "้อม",
        -11.764355470870717
      ],
      [
        "มนุษยช",
        -11.764754617520477
      ],
      [
        "เทอร์",
        -11.765859394812761
      ],
      [
        "แทร",
        -11.76690707240688
      ],
      [
        "คราะห์",
        -11.768756745746895
      ],
      [
        "จ้า",
        -11.770205957911447
      ],
      [
        "มาน",
        -11.772705763034748
      ],
      [
        "บาล",
        -11.77499756642699
      ],
      [
        "ักกา",
        -11.776255406258542
      ],
      [
        "นล้าน",
        -11.778377870795254
      ],
      [
        "กำ",
        -11.778741293311414
      ],
      [
        "ยเล",
        -11.78121992104061
      ],
      [
        "คมน",
        -11.782817463365783
      ],
      [
        "ูป",
        -11.782840865351304
      ],
      [
        "เหม",
        -11.788545021092474
      ],
      [
        "ภู",
        -11.789206096212611
      ],
      [
        "การสอน",
        -11.791537808240886
      ],
      [
        "ทฤษ",
        -11.792618806831035
      ],
      [
        "ยั่ง",
        -11.792641473500991
      ],
      [
        "แต",
        -11.796190381005891
      ],
      [
        "บจ",
        -11.796395861721292
      ],
      [
        "ยูเ",
        -11.800759912181041
      ],
      [
        "ต้า",
        -11.803391321172672
      ],
      [
        "ดิเ",
        -11.804801105717011
      ],
      [
        "ไม",
        -11.807951145463031
      ],
      [
        "การวิ",
        -11.808646093519856
      ],
      [
        "การช",
        -11.81008266921594
      ],
      [
        "ดูก",
        -11.812919360959953
      ],
      [
        "เม็",
        -11.813890902519713
      ],
      [
        "รษ",
        -11.81417449657193
      ],
      [
        "พาะ",
        -11.814228849642092
      ],
      [
        "ก๊",
        -11.81647270971359
      ],
      [
        "่งใ",
        -11.817588512417185
      ],
      [
        "ยกรรม",
        -11.818069327201815
      ],
      [
        "วาล",
        -11.818534224097819
      ],
      [
        "เทศ",
        -11.818899016861955
      ],
      [
        "วล",
        -11.820968914841869
      ],
      [
        "ลาดก",
        -11.827617006535771
      ],
      [
        "ู่",
        -11.827763868355797
      ],
      [
        "อสัง",
        -11.828593439044552
      ],
      [
        "สองห",
        -11.838613045039493
      ],
      [
        "ลิต",
        -11.840407543020095
      ],
      [
        "พระราชบั",
        -11.843651030365688
      ],
      [
        "เภ",
        -11.848426034520465
      ],
      [
        "ธี",
        -11.853074498376643
      ],
      [
        "ื่อน",
        -11.85321178573622
      ],
      [
        "เสด",
        -11.855169630903676
      ],
      [
        "เพิ่",
        -11.856585883805367
      ],
      [
        "เวอ",
        -11.858691938329954
      ],
      [
        "ช้า",
        -11.859300045412168
      ],
      [
        "มกัน",
        -11.86604550382535
      ],
      [
        "ผู้เข",
        -11.866438600097553
      ],
      [
        "กรร",
        -11.871965656980475
      ],
      [
        "บี",
        -11.873045344304087
      ],
      [
        "ลู",
        -11.875755198008871
      ],
      [
        "ภั",
        -11.878875310850756
      ],
      [
        "กเห",
        -11.882602723488311
      ],
      [
        "เธ",
        -11.883418933533115
      ],
      [
        "พระราชว",
        -11.886614355677713
      ],
      [
        "ราฟ",
        -11.889680710390863
      ],
      [
        "ยี่",
        -11.889848601577812
      ],
      [
        "สด",
        -11.891792920533252
      ],
      [
        "อ่า",
        -11.899633970662729
      ],
      [
        "ผู้ป",
        -11.903866046510132
      ],
      [
        "งอ",
        -11.90904174658257
      ],
      [
        "้อ",
        -11.914659869196836
      ],
      [
        "ยุต",
        -11.915182154241927
      ],
      [
        "ฤติก",
        -11.91529069753418
      ],
      [
        "ด้",
        -11.915544273678968
      ],
      [
        "บางค",
        -11.916017518250575
      ],
      [
        "ทำไ",
        -11.918942308799476
      ],
      [
        "วสา",
        -11.919789571743856
      ],
      [
        "ดเก",
        -11.922226781112565
      ],
      [
        "นที",
        -11.923293985310892
      ],
      [
        "เกิ",
        -11.925308488757263
      ],
      [
        "ทรั",
        -11.925529443786274
      ],
      [
        "เทอ",
        -11.928682836407019
      ],
      [
        "มโน",
        -11.934983635174442
      ],
      [
        "าะ",
        -11.9360427197491
      ],
      [
        "ฝา",
        -11.938792695170505
      ],
      [
        "นู",
        -11.939368848485456
      ],
      [
        "กพร",
        -11.941255446281566
      ],
      [
        "งงาน",
        -11.941346356206491
      ],
      [
        "งตัว",
        -11.945362312406466
      ],
      [
        "วอน",
        -11.94638867804821
      ],
      [
        "ิช",
        -11.94881572365716
      ],
      [
        "ราชส",
        -11.95144399109705
      ],
      [
        "บัง",
        -11.952342945128258
      ],
      [
        "วิจ",
        -11.953942954186017
      ],
      [
        "สรี",
        -11.961606410045764
      ],
      [
        "ุทธ",
        -11.975190982515407
      ],
      [
        "ังค",
        -11.976015714101873
      ],
      [
        "แกร",
        -11.977585850330511
      ],
      [
        "มเป",
        -11.978235306931627
      ],
      [
        "ุค",
        -11.979917597989758
      ],
      [
        "วงด",
        -11.98328147031287
      ],
      [
        "ดดั",
        -11.98376886836899
      ],
      [
        "นตั",
        -11.987283869920901
      ],
      [
        "เคม",
        -11.99237870295603
      ],
      [
        "ูน",
        -11.99528344988847
      ],
      [
        "ณ์",
        -11.996027443647797
      ],
      [
        "าติ",
        -11.998215569319495
      ],
      [
        "ารจัดการเรียนรู้",
        -11.999710752268415
      ],
      [
        "ดจำ",
        -12.002353767282615
      ],
      [
        "คลี",
        -12.003087706104287
      ],
      [
        "มุ",
        -12.005680617229658
      ],
      [
        "ตกรรม",
        -12.010531683115095
      ],
      [
        "สาร์",
        -12.013354393162498
      ],
      [
        "การลง",
        -12.013864813246983
      ],
      [
        "ชีวิ",
        -12.015137929844867
      ],
      [
        "บสุข",
        -12.016822945756825
      ],
      [
        "เมื่อไ",
        -12.02496077881879
      ],
      [
        "ตรั",
        -12.026113120815978
      ],
      [
        "จำห",
        -12.03231135739768
      ],
      [
        "แป",
        -12.053600597483864
      ],
      [
        "็ต",
        -12.061210040550032
      ],
      [
        "ตติ",
        -12.065521804684309
      ],
      [
        "เด็",
        -12.067176277884663
      ],
      [
        "ตริ",
        -12.067373800043743
      ],
      [
        "ติก",
        -12.073422360865832
      ],
      [
        "อดี",
        -12.07828359600451
      ],
      [
        "กะ",
        -12.080727937169204
      ],
      [
        "การข",
        -12.083228788743376
      ],
      [
        "อก",
        -12.084925021508823
      ],
      [
        "การท",
        -12.085936846661049
      ],
      [
        "วิต",
        -12.090668128844545
      ],
      [
        "ลลี",
        -12.094245310149175
      ],
      [
        "เชิงท",
        -12.096800416732194
      ],
      [
        "ศุ",
        -12.100480031618451
      ],
      [
        "ไบ",
        -12.103284957489434
      ],
      [
        "ตือ",
        -12.1137211810303
      ],
      [
        "ผู้อ",
        -12.114266540510949
      ],
      [
        "ต่อต",
        -12.117177247795924
      ],
      [
        "มีอิ",
        -12.121382213352055
      ],
      [
        "ฟอ",
        -12.125063773172245
      ],
      [
        "โย",
        -12.134301028331086
      ],
      [
        "ไพ",
        -12.142068772663222
      ],
      [
        "นิวเ",
        -12.145141313700746
      ],
      [
        "ก้า",
        -12.1563699140664
      ],
      [
        "ันที",
        -12.162366140873413
      ],
      [
        "ตุ",
        -12.164540586953
      ],
      [
        "ร์ซ",
        -12.169309204887846
      ],
      [
        "ส่",
        -12.171726724771073
      ],
      [
        "ดุ",
        -12.186810631151056
      ],
      [
        "อลล",
        -12.189688485926872
      ],
      [
        "ธอ",
        -12.193954705095503
      ],
      [
        "เมิ",
        -12.196820613703236
      ],
      [
        "สเต",
        -12.207332257057125
      ],
      [
        "าร์ท",
        -12.21935235172016
      ],
      [
        "้าท",
        -12.224381226586774
      ],
      [
        "การเทคโนโลยี",
        -12.226060290223
      ],
      [
        "ร้อ",
        -12.234194013832017
      ],
      [
        "มาต",
        -12.236720765107258
      ],
      [
        "เลก",
        -12.239005542779315
      ],
      [
        "ราง",
        -12.246914850521096
      ],
      [
        "ะเมิ",
        -12.260634143302454
      ],
      [
        "น่า",
        -12.265415389702
      ],
      [
        "ราชา",
        -12.266261867917885
      ],
      [
        "ดินเ",
        -12.271755378616032
      ],
      [
        "กต์",
        -12.274073955442173
      ],
      [
        "ลาน",
        -12.286107234761264
      ],
      [
        "มิน",
        -12.290929287146136
      ],
      [
        "หก",
        -12.295414693233331
      ],
      [
        "เซ็นเ",
        -12.318891911450745
      ],
      [
        "คำส",
        -12.331342120286802
      ],
      [
        "ล้",
        -12.335622495783603
      ],
      [
        "บบ",
        -12.341825541046513
      ],
      [
        "ลือก",
        -12.349206233237284
      ],
      [
        "ลีย",
        -12.35245291398583
      ],
      [
        "การประช",
        -12.352979922351238
      ],
      [
        "ิยม",
        -12.366599353770425
      ],
      [
        "วอ",
        -12.367763670384008
      ],
      [
        "นียว",
        -12.37175335691919
      ],
      [
        "าศ",
        -12.373129298436004
      ],
      [
        "วิก",
        -12.377044230894743
      ],
      [
        "ทย",
        -12.377403145361672
      ],
      [
        "การพล",
        -12.383418138819085
      ],
      [
        "กระทบ",
        -12.406505053082563
      ],
      [
        "อลิ",
        -12.417014539896998
      ],
      [
        "ุป",
        -12.444286220955043
      ],
      [
        "สงบ",
        -12.445896278666464
      ],
      [
        "ไน",
        -12.449658354369012
      ],
      [
        "อต",
        -12.477148712346494
      ],
      [
        "นสอง",
        -12.487210260682925
      ],
      [
        "ิพา",
        -12.49092571301315
      ],
      [
        "่าว",
        -12.491143838659694
      ],
      [
        "ินี",
        -12.506334223453894
      ],
      [
        "เสร",
        -12.51197164412027
      ],
      [
        "คณ",
        -12.520531835741203
      ],
      [
        "สว",
        -12.522980947241985
      ],
      [
        "ลต่อ",
        -12.526542778557122
      ],
      [
        "นด",
        -12.535584834386217
      ],
      [
        "บู",
        -12.547472612391637
      ],
      [
        "การพ",
        -12.604011206805648
      ],
      [
        "ิศ",
        -12.622287373919072
      ],
      [
        "ปแล",
        -12.63034963356965
      ],
      [
        "าณ",
        -12.64002861440197
      ],
      [
        "มร",
        -12.641476156719184
      ],
      [
        "รภาค",
        -12.653106045646693
      ],
      [
        "สโ",
        -12.659973265839161
      ],
      [
        "ดร",
        -12.674042571265208
      ],
      [
        "งกรณ",
        -12.678132831669407
      ],
      [
        "ิษ",
        -12.689559971426235
      ],
      [
        "เชิ",
        -12.708690175874533
      ],
      [
        "บปร",
        -12.726041404193172
      ],
      [
        "แน่น",
        -12.727559106524305
      ],
      [
        "เหล",
        -12.736804545162828
      ],
      [
        "สีเข",
        -12.738211200799178
      ],
      [
        "บล",
        -12.741532072373223
      ],
      [
        "เทคโนโลยีส",
        -12.75305988842004
      ],
      [
        "่ม",
        -12.77692385743237
      ],
      [
        "่อ",
        -12.78466958479444
      ],
      [
        "ั่",
        -12.80467521135358
      ],
      [
        "สงส",
        -12.810439331731938
      ],
      [
        "ท็",
        -12.825863828255711
      ],
      [
        "การเปล",
        -12.836668067430637
      ],
      [
        "และปร",
        -12.840401624660512
      ],
      [
        "ียบ",
        -12.846579867080585
      ],
      [
        "สมบ",
        -12.863015278656373
      ],
      [
        "หรา",
        -12.867114448678416
      ],
      [
        "วช",
        -12.892984861843258
      ],
      [
        "กวั",
        -12.915533332182246
      ],
      [
        "าเซ",
        -12.915909725422626
      ],
      [
        "รังส",
        -12.92239456884715
      ],
      [
        "ก์",
        -12.92339194089103
      ],
      [
        "พฤ",
        -12.942987492754687
      ],
      [
        "ของการ",
        -12.953514980148405
      ],
      [
        "หอ",
        -12.96154202293173
      ],
      [
        "ลประ",
        -12.969037927636071
      ],
      [
        "ัม",
        -12.975053972313269
      ],
      [
        "าต",
        -12.985925398016024
      ],
      [
        "นตร",
        -12.991373654841176
      ],
      [
        "มือน",
        -13.014674870698482
      ],
      [
        "โอเ",
        -13.019280549395422
      ],
      [
        "ทางอ",
        -13.04336349491932
      ],
      [
        "ผู้เ",
        -13.080004726134083
      ],
      [
        "การเ",
        -13.086874670441151
      ],
      [
        "ฒ",
        -13.087897804032126
      ],
      [
        "ึ",
        -13.087997804032126
      ],
      [
        "ฬ",
        -13.088097804032126
      ],
      [
        "กภ",
        -13.088097804032126
      ]
    ],
    "byte_fallback": false
  }
}